/**
  ******************************************************************************
  * @file    network_data_params.c
  * @author  AST Embedded Analytics Research Platform
  * @date    Thu Jun 20 12:42:02 2024
  * @brief   AI Tool Automatic Code Generator for Embedded NN computing
  ******************************************************************************
  * Copyright (c) 2024 STMicroelectronics.
  * All rights reserved.
  *
  * This software is licensed under terms that can be found in the LICENSE file
  * in the root directory of this software component.
  * If no LICENSE file comes with this software, it is provided AS-IS.
  ******************************************************************************
  */

#include "network_data_params.h"


/**  Activations Section  ****************************************************/
ai_handle g_network_activations_table[1 + 2] = {
  AI_HANDLE_PTR(AI_MAGIC_MARKER),
  AI_HANDLE_PTR(NULL),
  AI_HANDLE_PTR(AI_MAGIC_MARKER),
};




/**  Weights Section  ********************************************************/
AI_ALIGNED(32)
const ai_u64 s_network_weights_array_u64[1519] = {
  0xbee8a2553f979b1dU, 0x3f80d200bcfc5b40U, 0x3f22e4ad3f644c9eU, 0xbde9611cbdfddf24U,
  0x3f57f1e43f9fa4b1U, 0x3f896404bd121440U, 0x3f5fcc583f7f6681U, 0xbf1097a23f7b4efbU,
  0xbdac4fafU, 0xbd15b83200000000U, 0x3e246d40bd07374eU, 0x0U,
  0xbc6d5374bd403b2eU, 0xbd2f300b00000000U, 0xbce7af9abd1466ebU, 0xbd0bd0efU,
  0x3e00a52fbf264be1U, 0xbec773023db64d4eU, 0x3dc0c905bf241100U, 0x3c6f8150bbbec0c0U,
  0xbf4c7300bec4c49bU, 0xbf1efccd3d976bf6U, 0xbf0a0fbebf014415U, 0x3e0f42b1bf12732aU,
  0x3e03ec03be906779U, 0xbe9576e73de43adaU, 0x3e931053be679fc9U, 0xbd223bf8be3d65c9U,
  0xbe9845dbbe887254U, 0x3d21090fbe1aac16U, 0xbcd1719dbea4d6f0U, 0x3d00fba8be5700daU,
  0xbe41006a3ddf5f66U, 0x3ea176243da99c3eU, 0x3ec9a7153e86187aU, 0x3ded6d06bd877004U,
  0x3e5170a93ed621c5U, 0x3e50e3a2be11c858U, 0x3f00eac13eb7455dU, 0xbe35e8a83e855a59U,
  0x3e0e825d3eb9315aU, 0x3ed5d8ebbc8b8390U, 0x3e82dc213e5a7e63U, 0x3c7c1f303d59c9ccU,
  0x3e8ad4603eb47654U, 0x3e3d71353d3daa9cU, 0x3e8720aa3e2e99b2U, 0x3da0baa63ecf547cU,
  0xbe0c10aa3ee14c7cU, 0x3dbaaaf33e075b89U, 0x3dfd39003e88a0dbU, 0x3defd3a63d406abcU,
  0x3e06cafd3e9a1949U, 0x3dce8bb8bd7eed58U, 0x3ee2f2563ed6de6cU, 0xbd66d1403d26faa9U,
  0xbacdee00be5b025cU, 0x3e1c0bcabcd83490U, 0x3edeb4893e3276b1U, 0x3d3a2a1cbc9c7618U,
  0x3e60a8233dc3c3c1U, 0x3e67dafdbd580888U, 0x3e01a474bda9a5e1U, 0xbdbed9463ab907eaU,
  0x3a1e35003cf6f140U, 0x3d639415be16506aU, 0x3ddc039f3e0980e2U, 0x3e2108e9bd2a5934U,
  0xbe083705bd36e30eU, 0x3e0bdaf73d3172a0U, 0xbdba12073d855ce9U, 0xbdc808fabd1d6b5eU,
  0x3ded3e02bb41605fU, 0xbc3f75cebe02d2c5U, 0x3e8ad1b93df27d4aU, 0x3e26a0cfbe293379U,
  0x3d764345bd48c6d4U, 0xbcd6b5b6be10bc77U, 0x3d79ca8bbdbc68c4U, 0x3d79e73c3d9f5ee4U,
  0x3e018d2d3e11ac25U, 0x3e5dfeeebe033ffcU, 0x3e83847d3ea8a9e6U, 0x3e3d83adbdeec58dU,
  0x3e96acb93eb94ad2U, 0x3ebb95ff3d54c2d0U, 0x3e77432e3e3b777aU, 0x3d97be5a3ecc5cf1U,
  0xbe31fe81be0314d4U, 0xbe9874f9be3443bcU, 0xbe26a9d5be42715fU, 0x3e310201be37b575U,
  0xbe9b43dcbe3ad8aeU, 0xbe7d8e4fbe3e6fc9U, 0xbf001456be838dc3U, 0x3e251d61bde59fc6U,
  0xbde8d5683dfd13b7U, 0xbe00a4a63dbfb6beU, 0xbdfeb1203dc32fd6U, 0xbca263c03cb8e6d0U,
  0xbc9d16753d251a5cU, 0xbe5cc1babceca448U, 0xbdc518eebe1ec3b0U, 0x3e04b8ebbe68fdf5U,
  0xbe1debaebe34bb57U, 0xbe48bc733ca1be20U, 0xbdb44a58bdd26c65U, 0x3db9c71a3ce2a430U,
  0xbeed9e1a3cd85a52U, 0xbe08315ebe37ca51U, 0xbe3c0154bea8cc64U, 0xbd91f3f1be637937U,
  0xbe156ae93e4611acU, 0x3e8ca9d9bdfa5a2fU, 0x3cd990f03e838353U, 0xbce7a4c03e195eddU,
  0x3ea22f7b3e102d12U, 0x3e252984be3e78b4U, 0x3df71b2f3e9bec15U, 0x3c062ec03cdb02adU,
  0x3c5b57703ebe456cU, 0x3daa5c503e13d85dU, 0x3e1737903d94f915U, 0xbe0b31a6be3c1acaU,
  0x3e6c36123d9e017bU, 0x3e33fdcbbd1a481cU, 0x3ece183d3ddf180eU, 0xbdf709143e53e48aU,
  0xbe37f1e03e6f4e97U, 0x3cc2cf973d82cbfeU, 0x3d7cbdab3e810027U, 0xbe042783bd5113fcU,
  0x3cba24c63e388badU, 0x3e5edb9f3e076073U, 0x3e9562033eb4624eU, 0xbe1d30ea3e8cf1adU,
  0x3e28d687bee08a21U, 0xbf409291bd5d1eb8U, 0xbd363a01bf2ba8f1U, 0x3d9f56ee3e175e91U,
  0xbf82906abf17e4d0U, 0xbf350ee1bda69206U, 0xbf6d2a71bf592defU, 0x3d958a8ebf22da30U,
  0xbdc2af26be3f5ec9U, 0xbea2acaabd3dc218U, 0x3d0853e1bf1bd5bbU, 0x3d3122acbdeb662bU,
  0xbf5ec290be4aeed1U, 0xbe6e58ca3e21fb59U, 0xbf282bbfbf12f696U, 0xbe3bb17bbf39a23cU,
  0xbe1582c2bef78dd7U, 0xbf354889bd814a26U, 0xbe9802c9bf51f6acU, 0x3cd32a88be4322c9U,
  0xbf3cb5dabf17d747U, 0xbf0cfc193daa7b52U, 0xbf7e29b7bf3d8179U, 0x3d762034bf52ddedU,
  0x3d5d65c83d8bd89aU, 0xbd5b4585bde6eedbU, 0x3e690a573dc58362U, 0xbe2aedf63c4e2e90U,
  0x3e59d90a3e38a348U, 0xbc841bd6be3210dbU, 0x3e7202563aa79442U, 0x3e1c524bbdd4a3ebU,
  0x3e2aaa933e8f9298U, 0x3e97ea3d3e10e915U, 0x3e94403b3ebc2e88U, 0xbdffeb75bdf0d1afU,
  0x3eeb86e93e83749dU, 0x3ea33b3e3d9c32c6U, 0x3e9012893e2bc2baU, 0xbe0ce8d63e3a2da3U,
  0xbe3179363e91711aU, 0x3ec84781bdeca1d1U, 0x3e8f32703e568356U, 0xbe182889bded3ab7U,
  0x3edabaf93ec91731U, 0x3e114e603e11e435U, 0x3e9fd3723e7cf1fcU, 0x3afbee003e16578cU,
  0x3cd2d6d83d3670a9U, 0xbd9b4fcfbe221f48U, 0xbd3e7aa8be26eaffU, 0xbe08445a3dc96a56U,
  0xbd482bc13e017316U, 0xbd270662bc1d5210U, 0xbdc430d6be639bebU, 0x3d13d0a4be01ce2fU,
  0x3dc987fabe37b65fU, 0x3d34eb9c3e3a1b3bU, 0xbd43e760be885d8fU, 0xbddfab5f3d096af0U,
  0xbd28e075bb7b1e98U, 0xbe590723bda5ce48U, 0x3db97693bd9cb633U, 0xbd135274be6a8af6U,
  0xbc1bedf0be532244U, 0x3d134461bcbbd268U, 0xbda27ccfbd6120edU, 0x3e1afd69bdbf02c8U,
  0xbdea16d73d3167d2U, 0xbd906d603d783fe4U, 0xbd994754bcfaf1dcU, 0x3d1c44b4bd8a0612U,
  0x3d87677a3d5e416eU, 0x3d6ad1753da6b2eeU, 0x3e16796b3e7aeadcU, 0x3e3ad301bd6a1480U,
  0x3cea4b273d68c208U, 0xbd0d68903d4ec60cU, 0x3ea064003e3b5ab7U, 0x3c63c1603d8344d4U,
  0xbdabe50f3ebd9935U, 0x3e87d1c63d521c74U, 0x3e141af83e4e47edU, 0x3e43141fbe3d7389U,
  0x3ee15ef33e9e0e0eU, 0x3eb3e93cbd9646e9U, 0x3ebc0fdf3e310d9bU, 0x3e37ce773eeaef45U,
  0x3e0dc9673d1440baU, 0x3e31b2103d64a80cU, 0x3d5e7a263e9eb56fU, 0x3d9ed4a2be20af21U,
  0x3e4e61933e417cc1U, 0x3ea55dc33e1a4415U, 0x3e481fa63e3f292fU, 0x3d2e9a283eaa6de3U,
  0xbd99bb6e3ea86313U, 0x3e5c4428bda3c0f3U, 0xbd4798f23e9040c6U, 0x3e08b42d3ce86530U,
  0x3e85bcd83e5155a3U, 0x3eda2f313ce3dc28U, 0x3ecf8c9e3ef1ca67U, 0x3d87f1f63e47ff14U,
  0x3d374de0be92de59U, 0xbe3479483cd19830U, 0xbd6094fbbebd42e5U, 0xbd3b7c3c3d41b1d0U,
  0xbeef3da3be46a10cU, 0xbe4bd3bdbdb3da24U, 0xbef670e6be66d001U, 0x3d950852beb4a885U,
  0x3dccd2dabd787fb4U, 0x3dbb74e0bd85af6eU, 0x3ca4e7c3be29d5eaU, 0xbe0fa9e23e14a891U,
  0x3d117e773df41bd8U, 0x3d125e5abe19598eU, 0x3e2f6fd4bdf5a526U, 0xbdbaeb58bd44463dU,
  0x3d5b8bd03e78b16eU, 0x3d43d1d4bd4fa644U, 0xbe1d7b533b861b29U, 0x3dbc8dd23dfa406aU,
  0x3d421bef3e0b83a4U, 0x3da8d12ebcf7ea68U, 0x3e816cd73df58d37U, 0xbd0a91ec3d4e432fU,
  0x3e079a513e53040dU, 0x3d943fb6be2d1778U, 0x3dd9dcf33eaaba24U, 0x3daccf0ebd244758U,
  0x3e699e353daa7e06U, 0x3e6f2f123e0c2e59U, 0x3e80a3143ea13eabU, 0xbd811e463dc5ce8fU,
  0xbdb89cb83e557cccU, 0x3d491bd43e03f3a1U, 0x3da41ce93e97ff75U, 0x3ce1ec60bdcae5d7U,
  0x3dd3b9813e48a14dU, 0x3dfb8fc53d693050U, 0x3e899eae3d942fa9U, 0x3cae9ba83d2e5d73U,
  0xbe3838f23e88fcabU, 0x3e0915b3bda0f452U, 0x3d9f30d63e9db810U, 0xbe00a6773d794eb4U,
  0x3d8200083d986394U, 0x3e4b8e213e210697U, 0x3e7075183eb8d437U, 0xbdeb987f3e8b8b1cU,
  0x3d80571ebdd39666U, 0xbe2522fabd4ea0fcU, 0xbd2a1c08be049a42U, 0x3e36f93bbd8c3823U,
  0xbdf30238bdd3fb73U, 0xbe2825ccbe3717e8U, 0xbe9b0827bc57a6eaU, 0x3c6cd8d0bc4efcfeU,
  0x3da9c87e3ea36eb7U, 0x3e5e0f753e156747U, 0x3e8d90ef3ddd80adU, 0x3da369ea3e053bc1U,
  0x3e0a3df03d5bfba9U, 0x3ebeda563e364f4fU, 0x3de6c50c3e49170eU, 0xbdd40a6c3e9df829U,
  0xbdf7cc083ec7807cU, 0x3f3fd43ebe1c8579U, 0x3e3d4e0a3f3e1031U, 0xbe02ad0e3b8cb480U,
  0x3f5e43263f33f7c8U, 0x3ee1b8843e2ab54bU, 0x3f286f313f0cb3f9U, 0x3cbb20e83ef6640aU,
  0x3d8f41ae3dce91d6U, 0x3b6cfc1f3d687254U, 0xbdb72f37be421007U, 0x3da83c42bd7ccd2cU,
  0xbcbf718bbd8705faU, 0xbe47324dbd479080U, 0x3d751ebb3d8c8d0cU, 0x3ddcb76ebd992760U,
  0x3ca416703d5f443bU, 0x3df84a853dcd28baU, 0xbe0079da3da693feU, 0x3ce786703dfd80caU,
  0x3ce5a71c3e0ebc20U, 0xbd39007abd306a3cU, 0x3daf32efbde8efd5U, 0x3e35be0fbd3ec93bU,
  0xb88e5000bd8dba18U, 0x3dae8a4fbdf78809U, 0xbd768306bc253ab3U, 0xbc7ea4e0bd54513cU,
  0xbdf2bbd7be1a2a91U, 0xbe16f2a9bd47f8bcU, 0xbe42c9e83d40869dU, 0xbe2b61d93d899ef3U,
  0x3e29a2f5bdb3b274U, 0xbd255803bd7e2a98U, 0xbd8f89f0bdd7eb6aU, 0x3c84a0683de728deU,
  0xbd3fa1ee3e06d056U, 0xbd6d32863ddf2c82U, 0x3d979c1cbe0813f7U, 0x3e0d2c7d3ddea827U,
  0x3e27be75bc9f65f8U, 0x3e4745023b537b80U, 0x3d5ebffa3e5b62ebU, 0xbdcbab723af35780U,
  0x3cf22edf3e5af5a2U, 0xbc17c1f4be18e654U, 0x3d6bf934bd833d17U, 0x3df32c6e3e82cc4aU,
  0x3d5c95343e2a97bbU, 0x3ec1bd4dbdbcbe81U, 0x3defecbe3e08daa5U, 0xbe246d463d811ec6U,
  0x3e2bda9d3eb20b1aU, 0x3e91cd91be0dcacaU, 0x3eb110ab3e3c32b9U, 0x3d844a423e98a3afU,
  0x3dc01802bd936dcaU, 0xbd9a00c53dc29c4aU, 0x3c893dd5bde9e18bU, 0x3e1832133cb3d4d8U,
  0xbb54f5e53d26bd7dU, 0x3d6020ebbd669834U, 0x3e0fe3dabda27fedU, 0xbdd4c02ebd243462U,
  0x3c78fee03de5b7deU, 0xbc56d1b2be3e3d69U, 0xbe283d7a3d8e137eU, 0x3dd6726a3e0ee151U,
  0x3e6e75d63e100064U, 0x3d26dabe3d3a18d8U, 0x3e5fff423e4edebfU, 0xbe436f7a3c467538U,
  0xbe02b8f0bbc42affU, 0x3b698a743e17cdf5U, 0x3e8bed683e1f87ebU, 0x3deeccde3e0a3e63U,
  0x3cf7c460bdb1015aU, 0x3e99dab43e2f7c07U, 0x3d9071fc3e013db6U, 0xbd53a6643e7bc7f5U,
  0xbe3f32bbbf0877abU, 0xbeebdc58be2037d5U, 0x3e9999d2bf10ff7eU, 0x3db7bc923d60e0c8U,
  0xbf562ca4bf42d2b7U, 0xbf3bcf71bd2335d4U, 0xbf62a5e4bf1b4ea9U, 0x3def0a36be76e857U,
  0xbc8ce508bf052b29U, 0xbf05418d3ccc7de8U, 0x3df29249beed0469U, 0xbe406c1e3e21e307U,
  0xbf4f2e22bf32423bU, 0xbf3f52e7bdd623ceU, 0xbf1092bcbf114833U, 0xbe232666bf0f57e1U,
  0x3e2f2ad33e92669aU, 0x3e8f218a3e108473U, 0x3eb4b4c43e9f227dU, 0x3db76d86be09c515U,
  0x3e9ebe513e81f6faU, 0x3e4c6de1be03aed4U, 0x3dabbbe93d93671aU, 0xbd68d5383e36c966U,
  0xbe0e3ace3e20f4d3U, 0x3c0107fd3d00e548U, 0x3ebe146d3e5ef185U, 0x3d0865143ce4caa8U,
  0x3dc5e76fbcdaf54bU, 0x3de46592be31d720U, 0x3e3916703e78c6fdU, 0x3decf1063da8d900U,
  0x3d5c51703e8fe3cdU, 0x3ec286613d842e3aU, 0x3ed2f3953eb45238U, 0xbe18336a3dd012daU,
  0x3ed36d0e3e901b0dU, 0x3ec77b8d3e29c603U, 0x3ec3784a3e2f8689U, 0x3d7055c83ef561daU,
  0xbd308fd43e75a9baU, 0x3e48e30c3dd9953eU, 0x3edec8103e850ac3U, 0xbcc79a503e25a4dfU,
  0x3e32b17d3e65547bU, 0x3e1bb0763ddf3f96U, 0x3e0547c33e8edb3aU, 0x3e41ab853e1cad3cU,
  0x3cb1e5d0bd29be35U, 0x3cd7a9253e02f291U, 0x3d9264a7be555ccfU, 0x3d035bf43e036c2fU,
  0xbe6da6b0be531a19U, 0xbe7675d2bdea8685U, 0xbeba16ff3db7201dU, 0xbe0949c8bcc279aaU,
  0x3d4f41e4be16c502U, 0xbe9855023c750610U, 0x3e3d553ebe874756U, 0x3d7e38cc3d38b244U,
  0xbe48e4a1bdb0bd18U, 0xbe2c89ac3e3799edU, 0xbe8c27b6bed0c811U, 0x3e37c2e5bdd46688U,
  0xbe401226bd82084dU, 0xbe01983e3b9b1be0U, 0x3e366fd4bdb489fdU, 0xbd244d78bde98043U,
  0xbe9cacd0bdbc7e63U, 0xbe4311073e13fb2dU, 0xbe8961b9bea2741eU, 0xbc9a5570be9e1776U,
  0xbd74a7e03d33a3feU, 0x3cae8815be0be630U, 0x3e175809bea22c5eU, 0x3e2a1d2dbd2bda08U,
  0xbebc367fbdf5581bU, 0xbbad0fce3d4c9df0U, 0xbe18f499be7f70ddU, 0xbe2ad3343c922521U,
  0xbd990b693e6ec3d1U, 0x3e9a8c2abd16b5ecU, 0x3e3069e23ed45230U, 0xbd251f003e42d773U,
  0x3e5fe3143e92d8eaU, 0x3e5f9684bd8e0356U, 0x3ed1c5023ed9dabeU, 0x38c7b0003e76f41eU,
  0xbe0178203e878b4bU, 0x3c8170b63da92b22U, 0x3d9bfb2a3e3ba32bU, 0x3e13947d3e17312bU,
  0x3e947aba3c3b34dcU, 0x3e918b333ca2cf40U, 0x3e7c971f3e9f1646U, 0xbe3a2de03d89005fU,
  0x3d318a70bbf2eeecU, 0x3e67197b3e34acd1U, 0x3e98e189bc732ab8U, 0x3e2d4fabbde36aadU,
  0x3d35232b3e2544b6U, 0x3e350d37be0c2da4U, 0x3e7f560a3e17d387U, 0xbe0580f93ea5ceffU,
  0x3ce47060bd4d5a63U, 0x3dafa8793e220d3dU, 0x3e0a15203dd5d5d7U, 0xbbc4f0e0bd98e7faU,
  0x3d7bd7e23e8acab3U, 0x3e4559d3bdf045e9U, 0xbd6f77b73dbea7f6U, 0x3b0efdc03e244c00U,
  0xbdadae033daf1181U, 0x3ec5b582bcf94250U, 0x3e91a37c3efa0028U, 0xbd8487c4bd4458bcU,
  0x3ea694223e2196b0U, 0x3ebb0a47be1421aeU, 0x3f190d503eb0980cU, 0xbc2a43b03ebd0c7bU,
  0xbe2958023e840956U, 0x3e5e216fbc6894d0U, 0x3c8307623de6cdbeU, 0x3e1cc94dbd489de8U,
  0x3e87286ebbffc178U, 0x3e8b09b6bd7a9d6cU, 0x3e6526a43e12715dU, 0x3d915b963ea15698U,
  0xbe374cff3e508091U, 0x3f030c623df5a56eU, 0x3ec1b1183f122942U, 0xbe29826fbdad1409U,
  0x3f0bb6043e98634dU, 0x3ebd3b12bbe1c860U, 0x3ec9625e3f0add7aU, 0x3cdf42003ef31582U,
  0x3dbb1026bd82cc81U, 0xbe11c09c3e041d6fU, 0xbda2ee063e03bed9U, 0x3e3a0eb1bd429f38U,
  0x3ddd1db3bc9d9ec3U, 0xbccba157be2543a5U, 0xbba684aebe5476eeU, 0x3e08c1fdbe3d53dbU,
  0xbcda4b18be0626aeU, 0xbcab673bbe15ebd4U, 0xbe154faf3db1e095U, 0x3b6a0080bd9b40b1U,
  0x3b9a94ac3d4fb34bU, 0xbc59a45ebd299080U, 0x3de982b93da3981aU, 0x3cda8b403d12116fU,
  0xbe38c9a2bdb6e413U, 0x3db6b054bbc21940U, 0xbe308910be068b30U, 0xbe392f8b3e059f57U,
  0x3e1576763e06a176U, 0xbbf173df3d555450U, 0x3db73719bd041b6cU, 0x3ddd6ffe3c8c7f33U,
  0xbd8e776abe040319U, 0x3d7668d23daf6196U, 0xbd99957c3dc8a648U, 0x3e3d006dbcaad528U,
  0xbe55e220bd88fe33U, 0x3e287734bde5d95eU, 0xbdab989b3bbda7f2U, 0xbd3738a43dcd27f3U,
  0xbe0d35d6bdaa080dU, 0xbceea01cbd152980U, 0xbe1ab5c1bdbb1701U, 0x3e2261c93e05326bU,
  0x3e044d15be2f3ea4U, 0xbdefc6ccbdfff814U, 0x3dcf1b5fbddb0daaU, 0x3d0db93cbe31b4adU,
  0x3d68a61cbca5f8e5U, 0xbb9a45303d0e9a44U, 0xbd062a62be10d84eU, 0xbc16c9003ce955e8U,
  0xbd489cbebc85ced3U, 0x3b394471be1a8c86U, 0xbe34cb09bda558d2U, 0x3e3a059dbe178855U,
  0xbe286052be28cec7U, 0xbe4ed1a93c3e1620U, 0xbdc677c3bd4c9847U, 0x3d2114a4bd43d840U,
  0xbe2368ee3e162916U, 0xbe2cc08d3e35bdc1U, 0xbe09cd4b3cf32fc8U, 0x3d34367c3df6f62eU,
  0x3e2f2a65be1fdc16U, 0x3d7b8777be353d68U, 0xbafc7b0bbe0f8f43U, 0xbd2745ac3d4fcd78U,
  0xbe48c635bd3ad24fU, 0x3db9a14bbd8382a8U, 0x3db12faa3e246b23U, 0xbe1277e8bdcb8314U,
  0xbdbb16b13d797eb8U, 0x3d67afc1bda69458U, 0xbde0ba2f3df78fafU, 0x3d7171343dd569d2U,
  0xbce5fa613da8581bU, 0x3e203644be2e79aeU, 0xbe599a773cfab456U, 0xbcd80198be127e60U,
  0x3deb49ce3e9d599fU, 0x3dd70a24be170d52U, 0x3e93ae603dd2d5e7U, 0xbdeec62cbc6fb4d0U,
  0x3e8b10683e7796e2U, 0x3e9794a53d525a7cU, 0x3e1634523e601a4bU, 0xbd89bc153e19fa06U,
  0xbe07ec483e9b7843U, 0x3ec517763e07a1abU, 0x3e632f5b3ee9c15bU, 0xbc567de0be23d239U,
  0x3ea37e273cdcc0a3U, 0x3d2186693e10ac5dU, 0x3ef13c4f3daf694bU, 0x3e183a0f3e9902a8U,
  0xbc9d23683e80d86eU, 0x3e64eeb0be33de8aU, 0x3e9c7db33e767ba9U, 0x3d462b28be02ea9eU,
  0x3d08131b3d9e76a1U, 0x3e92568bbd909670U, 0x3ea5f94b3cc43f64U, 0xbe0c22f43e788025U,
  0xbdd63a3bbe5f3f97U, 0xbe41ec09bd2700d0U, 0xbdf91bbcbe0b2c73U, 0xbe035c7abda19f89U,
  0xbe1bb15bbe74b0c1U, 0xbe4f79de3d680cc4U, 0xbe4fbd87bd7a7921U, 0xbe0a774dbe6e4f65U,
  0x3dd8aa66be2c6b0dU, 0xbec11e33be1f14caU, 0xbe63f0a3be5fd86fU, 0x3cd88920be0b0d27U,
  0xbee49c06beb22bebU, 0xbeb2cc75bdeb155bU, 0xbe6628e9be13e904U, 0x3db2cefabebf4c4eU,
  0xbd968020bd970739U, 0xbe8d6f433d7ded84U, 0xbd1f7b0abe8c6c92U, 0xbe373579bdd55697U,
  0xbd169e7ebccb01e7U, 0xbc0ed1dcbe3bb3faU, 0xbe84c630bde0344eU, 0x3e2b7997bd105229U,
  0x3dedfe6e3da2dbeaU, 0x3e8ad2b33db6d792U, 0x3e3ba5023e268abdU, 0xbe3b41ef3dbeff02U,
  0x3ec6fad53e3efe5cU, 0x3e7d7284be0d5db7U, 0x3e181ac93da54510U, 0x3e1292193e8e2dc0U,
  0x3dba12ae3eb1f894U, 0x3eafbdf43de7ffaaU, 0x3eee749b3ecc4659U, 0x3ae277803e0b06d1U,
  0x3ed56ef93e098387U, 0x3dc29169bdbf7f84U, 0x3e86e0b83ec5256dU, 0x3e3882273e93125bU,
  0xbd5d309c3e24c656U, 0x3d46a81f3c03cfa0U, 0x3e18fb6b3e8e3b7eU, 0xbe0509403cef4ec0U,
  0x3e8839b23dfa35daU, 0x3c1df5edbd64ad5cU, 0xbc9eae25bdb8a19eU, 0x3e1f5759bce6d0f5U,
  0xbe004ae23ea7cec3U, 0x3ea83877be3dd5b1U, 0x3eb2ce213edf31a6U, 0x3db5dc863d548040U,
  0x3ea5a2d33ea76a4dU, 0x3ebbe702be189194U, 0x3eb72c063ed96f8aU, 0xb8cd40003eadd964U,
  0x3a839e803e79a101U, 0x3b6b306dbd3be858U, 0x3e9eeb8e3e4c9c81U, 0xbd1fc30cbda0d9c2U,
  0x3e9ddb043da3a9d1U, 0x3d1cc7cb3cb83270U, 0x3e7462f9bb1562c4U, 0xbda0aba33d539f07U,
  0xbd292af03c888e21U, 0x3d3f42283e2c117bU, 0x3dc434933e8a313aU, 0xbe408625be234e88U,
  0x3eb21f923e2f9f74U, 0x3c162ae6bc5dc8f0U, 0x3e9c29363c2ad3c3U, 0x3da4ff6a3e490f77U,
  0xbd98d465b82acd97U, 0xbccfd1aebe240bbaU, 0x3dcdfa813e14699eU, 0x3e09dd97bd2b872cU,
  0xbce06fe83b69efe1U, 0xbd3b3027bd47f920U, 0xbce9de823e28ef1eU, 0x3d771214bd2a5d07U,
  0xbe3ba14bbddb9344U, 0xbd1b40cf3e0aed69U, 0xbca46969be147daeU, 0xbe3d2bc8be39f574U,
  0xbddb1e71bdb470a9U, 0xbda3362f3d067428U, 0x3c88b4a23c58aea8U, 0x3da8e30abd31e38dU,
  0xbdf70aebbde5227fU, 0xbe2b22a6bdd25af5U, 0x3e64a184bde7c409U, 0x3da1cc963d9dfb96U,
  0x3d49427fbe11a0f7U, 0x3cca3e4abd977acaU, 0xbd5848443d864ccdU, 0x3dcd50ce3dc4179cU,
  0x3e2285973eb29a80U, 0x3f206e993d6719f0U, 0x3f07a77f3f342cc1U, 0x3dd498523df1767eU,
  0x3f6b2fdb3f1e4244U, 0x3f2511583c44a180U, 0x3f5251493f4bd2deU, 0x3e22dc4f3f3f3368U,
  0x3e250a273e51913aU, 0x3ebbeb1f3d1dfb88U, 0x3ec6fa073f0390dbU, 0xbdd9d69bbe1471abU,
  0x3f3eae2b3eb96a21U, 0x3e73de353c5d26e0U, 0x3f0f89043eb90c86U, 0xbb113a003eeaaa62U,
  0xbd6401343ee55f8bU, 0x3f2f5acc3dc83e62U, 0x3e5c2ac43efc7d08U, 0x3ddbd12abe3107f1U,
  0x3f35d4b73ed4e8b6U, 0x3f12919fbe0e5b3aU, 0x3f40f7483f25a4c5U, 0x3e38e90f3f2e43b5U,
  0xbe3418793d94cbb3U, 0xbe0cacbdbdcca12fU, 0x3d0d3af7be5538e4U, 0x3e0538d33dbcec0eU,
  0x3d28e9e4bda41cb8U, 0xbb4ca9f23c31b550U, 0xbd987a7dbd7f11d8U, 0x3e101aaf3deb0a91U,
  0xbe2eab943e87ce03U, 0x3e382e8f3da40c4aU, 0xbc19156a3e9fdd9aU, 0xbdb1e8053e2287a5U,
  0x3eceb4d33e943fe7U, 0x3c20a9a7bcb02c90U, 0x3ec65aa73e41c720U, 0xbe2b855d3eae2577U,
  0xbd9b8c633ec30b81U, 0x3e0939f0bc93de30U, 0x3dc49aa63e6c9c24U, 0x3d8c488e3d0eee0cU,
  0x3e9277bc3e1e6a86U, 0x3e36398b3dae51eeU, 0x3ec46e653ee9a1f4U, 0xbd9ea3163ef0a24fU,
  0x3d6e6facbdc4bd73U, 0x3de6aaca3cfdb3d0U, 0xbcf295a33da602daU, 0x3c8a3fb83e0fe031U,
  0xbd13e59ebd0c29e3U, 0x3db9b1383deb0676U, 0x3bc99333bcbec57fU, 0xbe1e2566bcfe625eU,
  0x3dae78863b16ff5cU, 0x3e0ecc74bd723064U, 0x3d969a1bbdbc18baU, 0xbc2d1710bca04980U,
  0x3dfa063c3dc9caddU, 0x3c401f4a3dd56f32U, 0x3dd1fee83c8dd3e3U, 0xbe4215a73dfe836cU,
  0xbce54638bdb2ec6fU, 0xbe84790cbdde2de1U, 0x3c1b8a4fbe97f828U, 0xbe171b1abd0bb05cU,
  0xbecf3dcdbe7b7a1aU, 0xbe53e0593e251dd7U, 0xbeb1f071be80ecfaU, 0x3d4417c0be0652dcU,
  0xbdc0f9f33e93281bU, 0xbd52146d3e144933U, 0x3e5786d23e9c0c01U, 0xbe25a4f4bdee3fcdU,
  0x3d4973743d6dfad7U, 0x3e1091ef3d07bfacU, 0x3e08fd753e80dca2U, 0x3c3eeaa03de05ae5U,
  0x3d59d7a83e89ee2aU, 0x3dba7bd43e03aa2dU, 0x3e2f2e5f3e8d2af1U, 0x3dbcc9863cc64f68U,
  0x3e8bac393e74bb6dU, 0x3eacaa30be24caa4U, 0x3ed11d253e7bfb79U, 0x3d5b0d3c3ebd23a2U,
  0xbd4450083ead6d65U, 0x3ea80b943d25df30U, 0x3e99ab303e984c42U, 0xbe08f0c23d659bd4U,
  0x3e9249073deb5292U, 0x3eb6827e3d8917b6U, 0x3ee076eb3ed06eceU, 0xbe1b4b613e366ca0U,
  0xbdf3814a3efab5e7U, 0x3f23582c3e0ae315U, 0x3e971f1e3efb6156U, 0x3deef69ebcec5858U,
  0x3efc04803e82241fU, 0x3f1fc904bcaeca68U, 0x3f192b843ef86d3eU, 0x3d050c783ebbde9cU,
  0xbdd2abf6beea9681U, 0xbecd253fbe11dfc9U, 0x3e088cfabeb19402U, 0x3e38d739be157fd4U,
  0xbec9337cbe6e8ca9U, 0xbf1cc2253c3a5b20U, 0xbec2a1d3befe79b5U, 0xbe073088bf037385U,
  0x3e19c167be855576U, 0xbf27cbdabe0b2fd2U, 0x3d42cd96beefc444U, 0xbd9129683d9edecaU,
  0xbe9bf74ebeecb5c7U, 0xbea94e3cbe3a40fbU, 0xbf1b7886beecd6adU, 0x3cbe3600bef796adU,
  0xbdecbaba3e08edbbU, 0x3cc245c1bdf32cf0U, 0x3e52b8b63d8bbb83U, 0xbe2f35ee3e2d3e77U,
  0x3df49a2b3e40ea48U, 0x3d47b7fabe28fd2dU, 0x3e6e4a533decebb4U, 0xbdaa6c4d3d4ad942U,
  0x3e0de4bb3d430dbbU, 0x3e0c43123df1435eU, 0x3e4ef2b9bce27e0cU, 0x3e260db7bcecad90U,
  0x3cacea773dc5c951U, 0xbe063dc8bd57ebb4U, 0x3e0a281e3e33dcffU, 0x3e24180f3e084b70U,
  0x3cd03ed83e3742b8U, 0x3e8ad096be0ab7eeU, 0x3d2cea523e9390d1U, 0x3dbfd42e3e0cf521U,
  0x3f045a4d3e6002e2U, 0x3e74fff7be08716eU, 0x3eeab23a3ebc6e00U, 0xbc897d983f04eb2cU,
  0xbe099e133e7b777dU, 0x3e1b24ec3d6aeb04U, 0x3e9a4ccb3e241f2cU, 0xbd9997bb3e2a83a3U,
  0x3e236a713db34a20U, 0x3deed2fa3e20c4ddU, 0x3e0d4f0d3dff2e41U, 0x3e027cd13e859f7eU,
  0xbc0aa870be5b4695U, 0xbe242a313d30013cU, 0x3e6c4dbcbe0ae241U, 0xbe1ffdfc3db72a82U,
  0xbbb773a0be9a5bdbU, 0xbe6342e83d98ffb2U, 0xbc8ec193bbc07efdU, 0x3d410e90be6389c8U,
  0xbd1ed564be31dbbdU, 0xbe71dc7ebe3f31aaU, 0x3db96ac1be1028a5U, 0xbc245f203d3cb254U,
  0xbeb023e9be5b10f6U, 0xbd6627f03dc3c3b6U, 0xbe6221aebe8d05f1U, 0xbd792940be144551U,
  0x3dd43c263e41b765U, 0x392cc1393dd58202U, 0xbdd94b6fbdbe445fU, 0x3e1c66153dd3521aU,
  0x3dd63628bda59520U, 0xbde39acd3ddbb4eeU, 0x3e367348bd1cf799U, 0xbe28ad24bd5f9b76U,
  0x3db9aa3abe3391c6U, 0xbbf68cdcbcb8cb90U, 0xbe755998bda03494U, 0xbe067311bdae2e9eU,
  0xbe5eb1bfbdffd1f6U, 0xbd5e5823bda0c7d3U, 0xbd0223cebd1bc9f8U, 0x3e30d0d5bd123270U,
  0xbd64fa943eb5548bU, 0x3ead05debd335fecU, 0x3ec3d41f3e8d870bU, 0xbbb580c03cbe7c48U,
  0x3f2966893ef0ca50U, 0x3edbc7cf3e041b1dU, 0x3edf25703ee3d755U, 0x3d8eeebe3eec5c40U,
  0xbe14134dbdb93aaeU, 0x3e1d469a3dc82e46U, 0x3ddc8c613d93b474U, 0xbd209f04bb884960U,
  0x3e181fa73d3d2e4dU, 0x3db0d3e3bda7fa31U, 0xbdca0eff3da8689cU, 0xbe0385dcbcbd298eU,
  0xbd627b283de6a124U, 0x3ddaa01bbe259afcU, 0x3db9d861bd31f996U, 0x3d1716d83e2b398fU,
  0x3db70e393d77b468U, 0x3dadfc20be09269aU, 0x3d7333c33db4d040U, 0x3cace2c03e2148a3U,
  0xbdb405ae3c44fa1dU, 0xbe259ff7bdb4b842U, 0x3c219fa0bdbd07edU, 0xbe0b57703e05421dU,
  0xbd93aeecbc8fcecaU, 0x3d03eff0bba283c0U, 0xbdcf3823bcaf3fc2U, 0x3d3f4dbcbe780718U,
  0x3d737d3c3f01b893U, 0x3f282d7abdb50e11U, 0x3e65c4303f14467eU, 0xbe3ee6323d99b872U,
  0x3ef9fd3b3f0178eeU, 0x3eedb40a3c17ad30U, 0x3f1511143ed5f79dU, 0x3e0349bd3f0fada8U,
  0xbc48ec303e8bbecdU, 0x3f0cf7d3bda03fe7U, 0x3db061733f1707d1U, 0xbc9a7810bdb3903dU,
  0x3eb952883e61e871U, 0x3ec6905d3c5710d0U, 0x3f11cf793f173b06U, 0xbe4352d83ea93553U,
  0xbe2052933eb74960U, 0x3e8e60763e170a57U, 0x3dbc1a0e3efb447cU, 0x3e31fbf53ca6d000U,
  0x3ecb359d3e4a5c35U, 0x3f00db37bd94d13cU, 0x3ec9b6b03eade1dfU, 0x3d0c9b183ec9d191U,
  0xbdbd76f73eb7f5b4U, 0x3f3d4a373e30924dU, 0x3db388bc3ee410f8U, 0xbe3672d13e1d76b7U,
  0x3f5d14ec3ed94985U, 0x3f231283bddcb803U, 0x3f201fd23ee212cfU, 0xbddb9c4e3f31fb92U,
  0x3dd6dfa23e256812U, 0x3e736dd43b58fa80U, 0xbe3915a53ed8d71eU, 0xbe14a3ccbe0c5b79U,
  0x3e6ad4f13ea39ca1U, 0x3ea74bf23d9133e6U, 0x3eea939c3e6e7a6aU, 0xbdb4b7f23e30372cU,
  0xbe09a5553e7db910U, 0x3f1d205cbe1c8150U, 0x3dd717133f141ff2U, 0xbd0e5da4be36b12cU,
  0x3f2e820f3ecf1ea1U, 0x3e8ff7c13e104607U, 0x3f2ec5a23f0d3362U, 0x3deb1a463eb6f130U,
  0xbe1f1712bcf2676eU, 0xbd9e973a3d9654ceU, 0xbd7c66c53d49ec36U, 0xbe3a41a3bd0c4ce8U,
  0xbd66a5bcbd2afb10U, 0xbd11bb96bd83cfd0U, 0xbe053c1dbdf67949U, 0x3d8eafd2baf1c494U,
  0x3d1a2950bd10ec18U, 0x3d9a1f08bde4f29fU, 0x3d1eea1a3c92b6bfU, 0x3e22674b3dcb7b6eU,
  0xbde2a770bccaf26dU, 0xbd26e4af3e428e55U, 0xbd9ab4743d717c6cU, 0xbd9b38843d8cce3aU,
  0x3dc4d78abe03e297U, 0xbe83cd98be1d2fbbU, 0xbe49d861be62e2cbU, 0x3d8b6ae2be1a1df5U,
  0xbdd8f376be5f41ecU, 0xbe2cf002bda1bcdfU, 0xbdc9d5c2be4e4b70U, 0xbda8c2e9be3e596dU,
  0x3e275f953e50929fU, 0x3e7a377e3e294a5bU, 0x3d1bbf273e99559cU, 0x3bc3e460bd9f1528U,
  0x3ec3ddfa3e74b98eU, 0x3e3d1678bd986492U, 0x3f0d4fb43ee7fa20U, 0x3d97dc4a3ef5af95U,
  0xbbde2d003e9797dbU, 0x3eb97cafbc3f8ff0U, 0xbdc806ca3eb5bb5dU, 0x3e224915be1d7f81U,
  0x3e5e84a83e5120bcU, 0x3efadd42bce24458U, 0x3eac46043ef0194cU, 0xbe186cb33ee32706U,
  0x3dfc30d63f0d9239U, 0x3ed4dd0abd8caaceU, 0x3e2cbc403f035595U, 0xbcc6ea583da69f3eU,
  0x3f288df23f12a33fU, 0x3e7959adbe057609U, 0x3f3106893ead1561U, 0x3e2938793e9fd263U,
  0xbdf6097dbea29f96U, 0xbcb8f22fbe138d38U, 0x3dabbd0cbe0d1ca8U, 0x3ceca1c83d946ab2U,
  0xbe5b1310be8f6ce2U, 0xbdd89f6fbe2b6927U, 0xbed2a9acbed9bebcU, 0xbd2907f0be820242U,
  0x3e2d13b13ecd4141U, 0x3f0c3a9dba9b8a80U, 0x3e67d7a43f36ed16U, 0x3e39fd43be32c565U,
  0x3f08f4ad3f4474fcU, 0x3f1814f13d79e8ccU, 0x3f13d39d3f2fa3acU, 0xbdde7ded3f3bce7fU,
  0x3e42f4cd3eb355a5U, 0x3f0b72f0bd906b29U, 0x3ddca6733ef20f52U, 0xbe315905bc41e2f0U,
  0x3f1096c43eaddbb6U, 0x3e9023823de33a62U, 0x3f059dde3ecee1f1U, 0xbbce38203ea69309U,
  0x3d31b3a8bc1cf201U, 0xbde62f3ebd91b274U, 0xbd452dcdbe1c16baU, 0x3d02db50be1d8002U,
  0xbd74779ebd829281U, 0xbe090b83bb962940U, 0xbe1992373dcc0c73U, 0xbda51331be371e38U,
  0x3cbfb0a03db72b0eU, 0xbd3995a73d4e4514U, 0x3d821430be2cf7acU, 0xbda14e323da297aeU,
  0x3d0cb7d6be01358cU, 0xbcc37569bc995698U, 0xbe1a4db73d56b8e6U, 0x3e3f2de73dd93118U,
  0xbe14d4adbde28779U, 0xbddfc571bd2d91f8U, 0xbd8c2a9abe22be5aU, 0xbdcc46733d8ee1aaU,
  0xbdf8ae6abdcd774dU, 0xbd3832e1bcf3f4f0U, 0xbd8ac011be99c621U, 0xbe1f7d24be21c4c4U,
  0x3e2393213c0070b7U, 0x3cdc8228be222b8fU, 0x3e59391f3c7cf60fU, 0x3de4d4cebd612628U,
  0x3e2b0c843dd671d8U, 0x3c7a9e5c3dd385b2U, 0x3d6d0b9cbc097042U, 0x3c1c5280bdfc1cc0U,
  0xbe0d5d923ea58390U, 0x3ee569233da99a2aU, 0x3e1beac23e68d06aU, 0x3e1e41b53dcd8de2U,
  0x3eab0ea03e801537U, 0x3e581211be109305U, 0x3e8bb2fa3ec3ad4fU, 0x3b504f003ecd4d1dU,
  0xbe24688a3e204597U, 0x3e310015bd9b6a4bU, 0x3e195d803eb165baU, 0x3e11e3b53e2ab517U,
  0x3e9cbb843e3c14c8U, 0x3e452986bcd955b0U, 0x3d82e4483e90b664U, 0x3e14bb333e90a461U,
  0x3b3f4d803e693983U, 0x3eb774463ccd9c38U, 0x3e4df49b3e265860U, 0x3d6415943d9837eaU,
  0x3e0314cd3ea2adb1U, 0x3e4676ddbcee6828U, 0x3eed56363ec51438U, 0x3d01d0703dc43960U,
  0xbc9735d83e3e5150U, 0x3eb5da2c3e0b6efdU, 0x3dc63c1d3e590469U, 0xbd20993c3db88216U,
  0x3eb363b43e793dc1U, 0x3e8b6faebe2e0a50U, 0x3e11067f3e3ed42bU, 0xbd52a7143c40c3beU,
  0x3ad6df00bd9f1572U, 0xbde275923e2e0c37U, 0x3e54dfe8bd1e3618U, 0xbdbd08313e11fc77U,
  0xbc5d88403d925ac3U, 0x3e7371243e08cfb1U, 0x3c2c8c9f3d3eac4fU, 0xbad4be803e1dc54aU,
  0xbdeaa77ebd285e4fU, 0xbea6a600ba92d980U, 0xbdedbc47beacb9c7U, 0xbe350980bdbe0e12U,
  0xbea0dfa5beb333e5U, 0xbe307b2c3e300f8dU, 0xbe52492bbe924065U, 0xbd9841c2bebbf3f5U,
  0xbe28c10ebe39ec25U, 0xbe7904d43d46a5e8U, 0xbe77b668bec670cfU, 0x3db3a95ebe212f14U,
  0xbf0a3f1dbda7dd59U, 0xbe7dc15abdfd245aU, 0xbeb6a013bef3fbb5U, 0xbe3dffeabebc3650U,
  0x3e429cd5be824f03U, 0xbded01e9bd034648U, 0xbe3844073d341f7fU, 0xbb7956003e20d785U,
  0xbc68beeabbb6efc1U, 0xbddd9c70bdcf3753U, 0xbe77b8b8bdab913eU, 0x3c8985a0bd2ec4eaU,
  0x3d6828d43d1c9008U, 0x3eb48b57be32ee81U, 0x3e85b4ae3e47c9e1U, 0xbe0c6d43be00496fU,
  0x3e9bef203d3ddb4eU, 0x3e9e4283bce183c0U, 0x3e6e868d3e8ae7bfU, 0x3e3176df3e89ea72U,
  0xbd7c17183db416c6U, 0x3d87439dbe2203b6U, 0x3e685c943eab61fbU, 0x3e4387b5be3fa967U,
  0x3eb9333e3dcbed17U, 0x3ea7e0143e434eabU, 0x3ea2d1153da4cf84U, 0x3d75c10c3dc42c09U,
  0x3cfbe1f8bdd5ca74U, 0xbdafcd84be3633b2U, 0xbd852c883e2d93c1U, 0xbd7a9840be1dbb78U,
  0x3c879b783dd39978U, 0x3d140913bd17d68cU, 0x3e3c29e73e4e1112U, 0xbd9f1988bd1cb076U,
  0x3e188a873ee3ceebU, 0x3eeb61a4bbd79ae0U, 0x3e35924f3eca517cU, 0xbc3fa1803cc8fb00U,
  0x3f20bc2c3f11aa76U, 0x3eda4b5fbe429bf0U, 0x3ec50a8a3f231afdU, 0x3e2e667f3f26f654U,
  0xbccec1c0bed7df78U, 0xbee61b36be16cc71U, 0x3da5eb45bf1b7630U, 0xbe202e883e21e9fdU,
  0xbf190fa2bee21813U, 0xbf27b382be040d3cU, 0xbed8a7dcbf085d5fU, 0xbe30d19cbf17e3baU,
  0x3da5bc9ebe959bf4U, 0xbe1082d2bb4f0c00U, 0xbc551fe0be0fc43dU, 0xbc9303c03e3b5db3U,
  0xbeb8de3ebdc2ee5cU, 0xbde556c83c068470U, 0xbdc61019be1ca606U, 0xbd899964be3ae5abU,
  0x3e3d7f433d7db104U, 0x3e13008a3db58c6eU, 0xbaf359843e3427ddU, 0xbe3eee16bdf4ac2dU,
  0x3dd6cc9c3da71fd3U, 0x3e7bcb703d35f260U, 0x3decb0983e13d981U, 0x3ca4feb83d4ce8c3U,
  0x3e0356273e49a9e8U, 0x3c75807e3d77036cU, 0xbdb4731f3df9fb26U, 0x3d016c203de2304aU,
  0x3e3865033daf1b10U, 0x3c8520593e254061U, 0x3c9d8b3d3dc6b0feU, 0x3d75f96c3e10e85cU,
  0x3ce6f7183dd64ea7U, 0x3eba7980bca83f70U, 0x3e2271f23d70e107U, 0xbd5c9908bbc229c0U,
  0x3e8958423e89e960U, 0x3ea194113d7fa71cU, 0x3ea26b4c3e9af3cbU, 0xbdced20c3dd40cadU,
  0x3e0c8fcf3c23f51cU, 0x3e10fac0be152f29U, 0x3d996a393e29155dU, 0xbc63b950be19c48cU,
  0x3e84fde4bde5ed0aU, 0x3d84bc383e26aee9U, 0x3e2f20c73e249392U, 0x3e04e1f5bd6c0fedU,
  0xbe3a590cbde9e4d5U, 0xbdbfe8273e400b7dU, 0x3c281ed9bec2f3dcU, 0xbb920fa0bdf23562U,
  0xbe28d528bdd7974eU, 0xbe9652233df8e086U, 0xbe8d1024bea26b3fU, 0xbdd2a96dbe28c595U,
  0xbe0138cabe47be98U, 0xbd8d8071be39bc83U, 0xbc251872bd5ea5a2U, 0x3e091033be054f94U,
  0xbd3f71e6bdb499a2U, 0xbe12ba493cae9570U, 0xbe3e5aae3d3517caU, 0x3d86123ebd2bba62U,
  0xbdcf5ea2bf2475dbU, 0xbf192e1b3dc72a9aU, 0x3e18c835bf4450deU, 0xbdc0f04abdf525b5U,
  0xbf024017bed6f4e8U, 0xbf24fc5b3d7971ccU, 0xbf037aa6bf0f3c03U, 0xbe2093eebf000bc6U,
  0x3d4930f43e000dafU, 0x3e61d97a3e2862c3U, 0x3e9a5cf53e8d1952U, 0xbd84f92cbdbf60a0U,
  0x3ea2d8763e862813U, 0x3ebd18803e173669U, 0x3e9bde883ea17784U, 0x3c5452d03f026273U,
  0x3e1f5dff3e9c47e0U, 0x3e7fa9f43e300fb5U, 0x3e7a36743eaa4a08U, 0xbdc7c2bbbe033338U,
  0x3eb5664a3ea1e90eU, 0x3e5070f93de27422U, 0x3ecc4bda3ec54791U, 0x3dd9124a3e653604U,
  0xbd1ab1e43e103183U, 0x3e1710733e169bc7U, 0x3e41663a3e889943U, 0xbde0c27d3e34ef5fU,
  0x3e9b33013e5e6908U, 0x3e36c654be12322aU, 0x3d9582b73e4c85f8U, 0x3df681463e321ecfU,
  0xbd95e5503e462cfeU, 0x3e91ceef3dc361eaU, 0x3e4b15123eb4740dU, 0xbe1abead3ca7d900U,
  0x3eb1855a3eaa42e3U, 0x3e1c746e3dfe8dfaU, 0x3e5bd5e43e5c7e6cU, 0x3dd66b623ed3a803U,
  0xbda8b472bd27f3a1U, 0x3e37d878be3522eaU, 0x3e32c3a73db22c7bU, 0xbbe24c00be15ea9cU,
  0xbd4896f63e379504U, 0x3d1af7a33d64cb58U, 0x3e8b426a3d7212c9U, 0xbdb665e7bd1a36fdU,
  0xbc86e130bec89acaU, 0xbe769f1fbe1c911eU, 0x3dbbe62dbefd575dU, 0xbd6958e8be068684U,
  0xbf088f76bebfb9d5U, 0xbef1432d3cf98b30U, 0xbe98af2bbe6824ecU, 0xbd8c4972be5973d4U,
  0xbdefb9c83d2e4a5aU, 0xbc8ded09bc1e8c20U, 0x3d41656fbe162a20U, 0xbdf43d80be0d4921U,
  0x3d312516be1b1729U, 0x3cb6b34d3e1f8567U, 0xbe2013453db623bbU, 0xbb539280bbffce2aU,
  0xbd58654cbc95bb7aU, 0xbd9f5cbd3d5b4f38U, 0x3d9d225cbd1c541dU, 0x3d552140bbedf680U,
  0x3c2f99f3bd97f1c8U, 0xbdb3c5dcbd23803cU, 0x3e38f134bc3e33acU, 0x3d1eb6b03dd308c2U,
  0xbe392f42bed26d0aU, 0xbf2af0a9bdd2e286U, 0x3cc59fa2bf03ad86U, 0x3dfcfadebe1a6177U,
  0xbf4a1682bef2dcffU, 0xbe3bf41e3df66c12U, 0xbf11c635bf06c4aeU, 0xbe366122be96aec5U,
  0x3d9ac76ebd61eb56U, 0xbc0b623ebddfac04U, 0xbdf3857cbe7c3715U, 0xbe36eafebe09d0abU,
  0xbeacdc893dd39c9eU, 0x3d9f6832be37276dU, 0xbe772d67bd1100dfU, 0xbe293e0dbd50468eU,
  0xbd864336bd3c1ba4U, 0xbea823a13ddfaf9aU, 0x3cb4b6bebe080ee2U, 0x3e42231b3dfdd6aaU,
  0xbea69e44be744545U, 0xbe97f607bc378e10U, 0xbe407834be0c2e04U, 0xbe2eaeb3bd149189U,
  0x3c3b0d303e8c50eaU, 0x3e1397eb3daf3f72U, 0x3e2fa2503e6aa4c2U, 0xbc88d730be2f5aeeU,
  0x3e46120a3dc41bccU, 0x3e14a2693e3ea359U, 0x3e6fa6ae3dcd8996U, 0x3e11f5333e6486caU,
  0xbd8f90893d4a59bbU, 0x3eb2ca1cbe2159acU, 0x3e6929ac3e0156f7U, 0x3e2d2a7d3e085421U,
  0x3dcb02793e2e6079U, 0x3ebadd9fbdf3bb32U, 0x3ecbeb133edf7960U, 0x3d751a8c3e93c89dU,
  0x3e226c25babd81d6U, 0x3de392ae3dc43862U, 0x3da9aa893e5a1439U, 0xbd946dad3daa0cbeU,
  0x3e8631c53e58008aU, 0x3df53dd3bd864af0U, 0x3e207ded3df22ef6U, 0xbe0630123d974decU,
  0xbe1b0a8dbf6a3b20U, 0xbf61b040be362388U, 0xbeac301fbf817264U, 0xbe2e7337be3ebad3U,
  0xbf4d7fd0bf261aefU, 0xbf1332433da06312U, 0xbf660f0fbf5a5c0bU, 0xbdd67e59bf792f1dU,
  0x3e3ae8f7bf35fa0cU, 0xbf67fb18be116ac3U, 0xbe4f9752bf252f43U, 0x3d0a95fcbe28e08bU,
  0xbf8ecf73bf5172e1U, 0xbedb9278bd314ac0U, 0xbf6b4cddbf6c8f94U, 0xbe02de24bf083644U,
  0x3dda7076bf1a3c19U, 0xbf7862463e406f77U, 0xbe005f2cbf1aab65U, 0xbd0fdbd83de2a85aU,
  0xbf669af5bf623816U, 0xbf3cbe33be022c54U, 0xbf3602b4bf6af85bU, 0xbd511b00bf161a57U,
  0x3e1c8fbfbec2bb02U, 0xbedb8c8ebe1a11f2U, 0x3db75d52becb5719U, 0xbe36b1843cef9bd0U,
  0xbf1a47eabf1ba9e6U, 0xbeedde063d583540U, 0xbf213da0bf048931U, 0xbcad5b10bf2cbb02U,
  0xbccea090bde1d00fU, 0xbede71eeb9395800U, 0x3eed5261beaf8efdU, 0xbe43d3953d5d8fe8U,
  0xbe4b8139beb65992U, 0xbec19b083e07e619U, 0xbef53a39be4b4a0dU, 0x3dd0c072be3700b6U,
  0xbd3f60e8bea362dfU, 0xbe3345903ccf3db0U, 0x3eefc25bbef82f9aU, 0x3e1a75093dc26fd6U,
  0xbecde2a2bee5535dU, 0xbee291793d64b6ecU, 0xbe92de9abea92aa7U, 0xbd804368be293829U,
  0xbd6746cc3e6aa69aU, 0x3eaef9acbdaa9c12U, 0x3ec44eff3e2d7e61U, 0xbe4266d9bc4ba000U,
  0x3e65d34a3e58fecbU, 0x3ed80d1bbe0804bdU, 0x3ea858e33efabcacU, 0xbe136a7a3ea6e98fU,
  0x3c9096803e541634U, 0x3efec603bd774c38U, 0x3edb47b33edd6a9dU, 0x3ded3b42bcf5f6c8U,
  0x3edcf0863e8fce9aU, 0x3e11d26a3dc82f4eU, 0x3ee3c2933e594472U, 0xbdbf1e773ea5f5f1U,
  0xbe36d0283eafa6b3U, 0x3e98d8eabc3ca280U, 0x3f1649253ea48c84U, 0xbe0badaebe425e19U,
  0x3ecc9fdb3ec60bd5U, 0x3ebc3a7cbcfe4250U, 0x3efa407c3e67c45dU, 0xbde375023e787ee3U,
  0x3e382ff1befa4eecU, 0xbeeb0cecbd37a8d4U, 0x3e379954bef6e1cdU, 0x3e1dff993d8b8806U,
  0xbeed9d8fbe473aecU, 0xbecb40b4bd9e5d15U, 0xbf08015cbeddb24bU, 0xbd5916b4beef788bU,
  0x3dd33ce2bf1b2111U, 0xbed6b1f2bd946c0dU, 0x3eb89d4abeae7d55U, 0xbd154640bd0cd120U,
  0xbec4ef89be63d5dcU, 0xbf1bd46fbe25b833U, 0xbe831ed9be8a804bU, 0xbd3bf86cbec53a30U,
  0xbe176845bebd8c5cU, 0xbf1e3511bd23dbccU, 0x3e63c94fbed19899U, 0xbda0863e3e1c9b39U,
  0xbec54bcabee40ab4U, 0xbec3f9663d974136U, 0xbf0850c3beeffc94U, 0xbe01f265be6c854aU,
  0x3d452aab3ea2d6e7U, 0xbe0d3e783a7c2e81U, 0x3ea03a44be57adc8U, 0xbcbc95413df1e60aU,
  0x3e5e71b63de9a3f8U, 0x3e73c0c53d69ef67U, 0xbe6e3c47bc8503beU, 0x3c93190b3ce6645aU,
  0x3e558a5cbdb9d4c8U, 0x3ebf28563d116b4eU, 0xbf1cda35bf0280d2U, 0xbf1fc16f3f2d2543U,
  0xbe9b03d43eb6e755U, 0xbeae2b86bee33a13U, 0x3f1bf1093f18ae5cU, 0xbe864a213ef764e2U,
  0x3f13029c3c7cfb0fU, 0x3f337fec3f017199U, 0xbf031a22bea21727U, 0xbe1a97d5be5b3f2dU,
  0x3f83eeef3d359478U, 0xbeeb9a883e927a4eU, 0x3e6514b33d44c4a6U, 0x3ed1c9f5bf0aeca3U,
  0xbf188efabe5eacc7U, 0x3dfc9e1dbf833136U, 0xbe1188e4bf6ccc64U, 0xbe4cbf2abed7964fU,
  0x3f4d398b3ea2d537U, 0x3f4c20ef3f738098U, 0xbf34f32b3ed1d1b3U, 0xbe13ca5cbf3fd336U,
  0x3f5cd444bf778389U, 0x3da0a1eb3e863f38U, 0x3f31bd05bda7a677U, 0x3f0f2fe2bec237c1U,
  0xbf9788513e92cfc0U, 0xbec0606fbfabaf96U, 0xbdc331af3d883a98U, 0x3eb012dbbf6c28bfU,
  0xbf291259bd9dc214U, 0x3f205cf3bd4a567cU, 0x3be14f1e3f3b41e1U, 0x3d13e8453e7b2badU,
  0x3ef2f15ebf3ac891U, 0x3e8b58adbd95b31eU, 0x3eeae2fb3f00bc95U, 0xbf3f49cdbefd5cf8U,
  0xbf4450273f57d257U, 0xbf57139cbf4d4ae4U, 0xbf18861a3ee8ab39U, 0x3cf241c73e4bb170U,
  0xbf082fc3bea4347dU, 0xbe7bcd353ec5a3cdU, 0x3ee6746dbe89d90bU, 0xbf7f15b43eb27537U,
  0x3ea0d5d03f1ae0beU, 0xbf2def263eb42728U, 0x3ebfcb2dbf1435ebU, 0xbe13dbd3bf0d23fcU,
  0xbd736042be2a7c87U, 0xbe19ab063e973a5cU, 0xbc0e3ae0U,
};


ai_handle g_network_weights_table[1 + 2] = {
  AI_HANDLE_PTR(AI_MAGIC_MARKER),
  AI_HANDLE_PTR(s_network_weights_array_u64),
  AI_HANDLE_PTR(AI_MAGIC_MARKER),
};

