/**
  ******************************************************************************
  * @file    network_data_params.c
  * @author  AST Embedded Analytics Research Platform
  * @date    Thu Jun 13 15:21:10 2024
  * @brief   AI Tool Automatic Code Generator for Embedded NN computing
  ******************************************************************************
  * Copyright (c) 2024 STMicroelectronics.
  * All rights reserved.
  *
  * This software is licensed under terms that can be found in the LICENSE file
  * in the root directory of this software component.
  * If no LICENSE file comes with this software, it is provided AS-IS.
  ******************************************************************************
  */

#include "network_data_params.h"


/**  Activations Section  ****************************************************/
ai_handle g_network_activations_table[1 + 2] = {
  AI_HANDLE_PTR(AI_MAGIC_MARKER),
  AI_HANDLE_PTR(NULL),
  AI_HANDLE_PTR(AI_MAGIC_MARKER),
};




/**  Weights Section  ********************************************************/
AI_ALIGNED(32)
const ai_u64 s_network_weights_array_u64[99267] = {
  0xbe8a9b1b3b9fb5d3U, 0xbee9cf5abf0e67c5U, 0xbd9a5f12bec17ef0U, 0xbc8197ebbe2253cdU,
  0xbf028b3fbd9449a5U, 0xbef07339bec62c4fU, 0xbeda3f35bb1ebd3eU, 0xbe016e2abdff192fU,
  0xbea2f1d8bdb0c291U, 0xbefa97f9bddc8f21U, 0xbde3af62bf1edba1U, 0x3d98d11dbea01879U,
  0xbe02b473be2ca0a7U, 0xbe071109be90a1d3U, 0xbf136c0abec21ad0U, 0xbe8f57203ebe3dfcU,
  0xbd4619adbec9fe68U, 0xbf1a1fd2bf0a1c77U, 0xbeb8d57abedc5140U, 0xbed148e2bef1db68U,
  0xbf0ed493becb0eccU, 0xbee1663ebed10e07U, 0xbee437debeee2f6bU, 0xbe8e9ca5be93a6baU,
  0xbee4e7aebe328334U, 0xbefde986be870884U, 0xbe527ff6be40bc3aU, 0x3f34be463e8b1c3dU,
  0xbf35f38cbeadd500U, 0xbeb6c315be7cbf8bU, 0xbecb7477be78754cU, 0xbe832f3abd92de61U,
  0xbe832d92be591323U, 0xbf05b656bf04359cU, 0xbe87a395beaea4c4U, 0xbda2111abee88362U,
  0xbec48b79bf0b1927U, 0xbe82773ebe51ffb5U, 0xbe8a759ebec30708U, 0xbef33119be239dcdU,
  0xbeb652c1bef3fb27U, 0xbea2601fbf26883aU, 0xbef2d3803d2dc494U, 0xbedb2b29bf3659faU,
  0xbede0a53be1a3574U, 0xbe8f187dbe43514cU, 0xbde396c5bef44a61U, 0xbf1f95f0be53b9c1U,
  0xbe5550e3bed81426U, 0xbec0f7ac3e8af7caU, 0xbf057b04beea2e79U, 0x3f18214abe9d7069U,
  0xbe8c7ef9be758c0fU, 0xbec42539bed7404cU, 0xbed9c179beec681cU, 0xbede1e05bec532f3U,
  0xbeaba39abeb7dd61U, 0xbf148d33beba7c5bU, 0x3e9d93bcbf041722U, 0xbf08f527bec83553U,
  0xbe9db422be58cf8dU, 0xbe8086d3be6d5d13U, 0xbda06fd4be135debU, 0xbf246612be6a9891U,
  0xbf213292bf223506U, 0xbf1efff8bf201945U, 0xbf1cd4dabf1de6abU, 0xbf1a9ac5bf1bb412U,
  0xbf18682bbf195da8U, 0xbf163591bf174edeU, 0xbf13f4aebf1565e0U, 0xbf11d05ebf131ad5U,
  0xbf0fa184bf10b711U, 0xbf0da424bf0e0ddfU, 0xbf0b5408bf0c51ddU, 0xbf095509bf0a1f44U,
  0xbf06d22abf0815a8U, 0xbf04a0cabf05ba10U, 0xbf027527bf038776U, 0xbeffadffbf014b93U,
  0xbefc0fc0befe98c7U, 0xbef72f88bef9745eU, 0xbef33db7bef4c13fU, 0xbeee1fa2bef0224eU,
  0xbeeb06e8beec54c2U, 0xbee6296dbee82b98U, 0xbee1a41abee3a2ffU, 0xbedcf74dbedf3c7dU,
  0xbed89c27bedaead1U, 0xbed46d87bed6e66cU, 0xbecffcbebed24479U, 0xbecb94c6becd49dcU,
  0xbec76fe2beca047cU, 0xbec28f3cbec5058dU, 0xbebe6011bec0245dU, 0xbeba2c07bebc8bc0U,
  0xbeb5df47beb7a260U, 0xbeb1531dbeb3f49aU, 0xbeaccb2cbeaf39caU, 0xbea7f754beaa1188U,
  0xbea433e3bea61fb7U, 0xbe9f9f56bea1e612U, 0xbe9b341bbe9d900fU, 0xbe970b65be98f6a4U,
  0xbe929df9be94f82cU, 0xbe8e3514be906129U, 0xbe896ce4be8bb231U, 0xbe8570fbbe876638U,
  0xbe80fc60be833488U, 0xbe78a40cbe7d69e6U, 0xbe6f738fbe74325cU, 0xbe6733fabe6b6aa5U,
  0xbe5dfe95be6275c6U, 0xbe55a11abe59b6e7U, 0xbe4d12f2be517aabU, 0xbe443d58be48beb2U,
  0xbe3b6116be3fba3bU, 0xbe32c502be36fd5eU, 0xbe29b5e6be2e5ae9U, 0xbe210ab5be253cf0U,
  0xbe185402be1cc2acU, 0xbe0f7bc4be13f342U, 0xbe06dab7be0b0f73U, 0xbdfbe663be0263a9U,
  0xbde9f1afbdf2e67fU, 0xbdd85331bde13b47U, 0xbdc6cdfcbdcf96fcU, 0xbdb54561bdbe038fU,
  0xbda3be68bdac8284U, 0xbd91fa8cbd9aef28U, 0xbd8055fcbd89076cU, 0xbd5d5b5abd6f2a03U,
  0xbd3890c3bd4b34e3U, 0xbd143c71bd256bd0U, 0xbce77ed0bd03bcd8U, 0xbca47b4cbcc66c74U,
  0xbc3d8308bc81aad4U, 0xbb465143bbef0ac9U, 0x3bb4da663aa18c50U, 0x3c63d97e3c1fed40U,
  0x3cb289213c93159dU, 0x3cf331e43ccfbe7fU, 0x3d1ebde33d0c1d7fU, 0x3d44de0b3d3247f8U,
  0x3d68ea0b3d56fa82U, 0x3d8649173d7a8e55U, 0x3d97b5073d8f32f7U, 0x3da92bf83da059dcU,
  0x3dba97093db1a5d6U, 0x3dccaf553dc39eb8U, 0x3dde0b543dd56649U, 0x3defc4273de703ecU,
  0x3e00ce9b3df88d75U, 0x3e099a273e054806U, 0x3e1232393e0df088U, 0x3e1ab16f3e166700U,
  0x3e238a413e1f0e3fU, 0x3e2c6dab3e27f45bU, 0x3e356ea73e311604U, 0x3e3e32d33e39fa1eU,
  0x3e4701cd3e42ad05U, 0x3e4fa9bb3e4b612eU, 0x3e58b1b73e5409adU, 0x3e61a2303e5d2192U,
  0x3e6a57ae3e65d454U, 0x3e72feb83e6ea981U, 0x3e7b26943e76f6faU, 0x3e822df63e7fea72U,
  0x3e862c973e840351U, 0x3e8b4f253e88d676U, 0x3e8f78973e8d4f6eU, 0x3e93e6af3e91b4d3U,
  0x3e9830e43e96319aU, 0x3e9cc9af3e9a64a3U, 0x3ea13bf43e9f77d0U, 0x3ea5ae323ea3562dU,
  0x3ea9f0163ea8398cU, 0x3eadc64c3eac6d56U, 0x3eb25a163eb02c06U, 0x3eb6bf143eb4eb11U,
  0x3ebc71ab3eb9a592U, 0x3ebff6f33ebe67adU, 0x3ec4d5d43ec29069U, 0x3ec7dfdb3ec66c5aU,
  0x3ecc7cb83ecaa817U, 0x3ed0b93c3ecf3d9aU, 0x3ed5e3283ed2c443U, 0x3edac7183ed80801U,
  0x3ede9fce3edc6d35U, 0x3ee305023ee0d268U, 0x3ee76a353ee6076cU, 0x3eebcf693ee99ccfU,
  0x95988c9998948e9aU, 0x9494938e8d8e8b8bU, 0x95989a90978c8d95U, 0x9598908f958c8e8bU,
  0x8f9994978d999a8dU, 0x8f8e8f8d8d8d938cU, 0x8b90969991949898U, 0x8b9a949695999994U,
  0x99968e9691999291U, 0x8d98938e9598938fU, 0x9697958e9293978eU, 0x8f938c8d8b8f9692U,
  0x8d9a8d8f94969690U, 0x958f949297958c93U, 0x9a978f8c9895988eU, 0x988e8f96998b908eU,
  0x8e9a8d9699998b8fU, 0x8b949a9190999596U, 0x948b8b999897928cU, 0x9992949099999495U,
  0x9a928e9a92978e94U, 0x949895949a90959aU, 0x979391958b918b98U, 0x99999c91949a9699U,
  0x8e9a988f8f929296U, 0x8e989598928c9597U, 0x93969498998d8c8dU, 0x9193919494959594U,
  0x8f999097958f9199U, 0x9495988f978e8f94U, 0x8f8d948b98919097U, 0x9192988e98918c8eU,
  0x8d9395939b95999cU, 0x918d939a8c8c9491U, 0x988e9295998d9991U, 0x8e8c92968b8f8c8cU,
  0x968c949a9b939198U, 0x96998e969c8d9198U, 0x928b9496919c9998U, 0x978d8f8e8e8e8c91U,
  0x9093948f8c9d9b90U, 0x8f90909492959793U, 0x9797949592938c91U, 0x8d938e949c938e92U,
  0x92998b9792969194U, 0x938f91908f908c90U, 0x90929699978b968eU, 0x91919698918b9991U,
  0x9196919695949998U, 0x99909496938f8f90U, 0x9692958f8d918f95U, 0x9696938c96958c90U,
  0x939192928d8b8e94U, 0x918c939390939a99U, 0x988c8d939190998bU, 0x8f978f8c8b908b8eU,
  0x9496909494968f93U, 0x9998908f9595919aU, 0x8d8b919b94999892U, 0x948b8e91979d9a91U,
  0x8b9096938f99958bU, 0x8e9a968e97959199U, 0x939a92908f948c8fU, 0x93958d8c94988e94U,
  0x9296949795999299U, 0x908e9891928d9699U, 0x908c95948f8f9593U, 0x979a8f9593909699U,
  0x92979c908d8f9298U, 0x8f96969192919c91U, 0x969892998f8e8f97U, 0x8b8f9a9790949a97U,
  0x9793958d8c8f9399U, 0x919a93979097968eU, 0x8e8e90998b929599U, 0x8f908e9393979792U,
  0x8f95939191999698U, 0x999692969196938bU, 0x8e8b908f90918e8dU, 0x93979892968d998eU,
  0x989292998c989492U, 0x98929a9d979a9092U, 0x8c908e8b9898918dU, 0x99938b99908e9491U,
  0x9796998b8d8e9996U, 0x9292978e8c8d9793U, 0x998e998c8b8b8e97U, 0x9897929a90939494U,
  0x93918e949590908cU, 0x90919792968f9a8dU, 0x9199949990909199U, 0x97959b8d8c8f9692U,
  0x909796918f908f91U, 0x9096959995948c8fU, 0x8e98978d998b8c8dU, 0x92958d9b8e97908bU,
  0x9391938d9791969aU, 0x969b90968c94959bU, 0x9294939796929a92U, 0x98969299919a8c92U,
  0x8d8d96929d95998fU, 0x9b929191998b9a96U, 0x9194918f8e8f9094U, 0x8c8d8c97908e9496U,
  0x9398939393968f8eU, 0x9395938e99989690U, 0x939c948d928f9892U, 0x909290979097959aU,
  0x959b9a94978c8b9aU, 0x9091918c968c978eU, 0x9093918d9393968eU, 0x8e9499929190958eU,
  0x9293999893919694U, 0x90978f998e919098U, 0x8e998e8c978d8d96U, 0x909c9a9690918b90U,
  0x938e969194959a9aU, 0x90969b9399999798U, 0x908f988f94919d94U, 0x9a8f8c9a90999994U,
  0x96949b9c9a8e9496U, 0x92928b98959a9696U, 0x968f999d959a9192U, 0x989c929593939993U,
  0x998f9a9492939191U, 0x979690949294968eU, 0x928e9393948b8b97U, 0x958d8b8e8f9a988cU,
  0x98989390918b9c96U, 0x8f8c9a8b8d99908cU, 0x9c8e8c95938c8e94U, 0x8e979c939899908dU,
  0x8e97968f9090968bU, 0x959599909396938bU, 0x8f9c919b8e939893U, 0x979a8b988d918c90U,
  0x9a8f9999969c9492U, 0x9493909795989794U, 0x958b958d988d9393U, 0x93968c8b8f979593U,
  0x909a96929792948bU, 0x95968e8e928d958eU, 0x9699918e93929691U, 0x959a959999908c8dU,
  0x8e93918f9a8e8c97U, 0x9a92918d8f8d9790U, 0x8e8f8e9293918e96U, 0x8c928f96988f908fU,
  0x97928d9996988c90U, 0x97938e908e8f9292U, 0x9a90979490929891U, 0x8b989a948b9a8b8dU,
  0x988b999992978c99U, 0x9697979495989996U, 0x9a9093938b968c8eU, 0x94928f909090958cU,
  0x989696969594918bU, 0x988d9395938d948eU, 0x9a988b8e8b91938dU, 0x8e998e9c8d959691U,
  0x908e969592949297U, 0x8c96958d91948f9cU, 0x8d8b90948c999499U, 0x8c928b9a8f909394U,
  0x908d9490958e8e90U, 0x94928c9b95968d93U, 0x8b9a9497948b9595U, 0x95919995918c939aU,
  0x9992928b94988e91U, 0x919190969a8c978fU, 0x9991928c8d8d9598U, 0x8f8e989194958e8dU,
  0x909596978c999594U, 0x9c9c999697918e90U, 0x9a8c8d8b94978e8bU, 0x8b918d96998b9699U,
  0x8e908f9690979391U, 0x9d9793949195948fU, 0x958e8e9a8c96968bU, 0x8c94999394909b94U,
  0x9695918e98929995U, 0x8c95949492979890U, 0x8d9893978c8d8c8bU, 0x91949990958e8e96U,
  0x93928e9192939593U, 0x8b928f8d8f919493U, 0x929a8d949a908e97U, 0x8f9a8f91918e9391U,
  0x8b909a9b948e8f91U, 0x8b90988f96918c9cU, 0x8e8b91988f978f99U, 0x999a8e9192979999U,
  0x96948f94958b9194U, 0x8e91928e95908b91U, 0x959895988d949790U, 0x91928c9292999995U,
  0x98958f8c97959196U, 0x9a9b979494908e97U, 0x9198979393949698U, 0x9b96958e96958f8cU,
  0x959895999a9a9693U, 0x92929896908d9898U, 0x9b96999a97949c96U, 0x97909997919d9d98U,
  0x9c8f938b8f8d8f95U, 0x9098939591959a8eU, 0x968d9491948d9798U, 0x8e99958f8e999897U,
  0x8c9596999396918bU, 0x949592928b959391U, 0x95999494968d988bU, 0x929c9a8f9c8e9796U,
  0x8e92908d9d9c929aU, 0x93998f8e92958d97U, 0x98978f939090918eU, 0x97979a958d8d908bU,
  0x8f9490908e958f8cU, 0x8b928c8f928b8f94U, 0x95929496978c979cU, 0x92969a988e8d9495U,
  0x97999895958f998cU, 0x988c919090959296U, 0x968f8f9894988d8fU, 0x9091929a8f8d8f92U,
  0x8d8d8d9196919992U, 0x8e999a8e9390908bU, 0x98928f938d989498U, 0x98959b8f959a9590U,
  0x938f8b8d97989393U, 0x919395958e929890U, 0x9894969598969295U, 0x928d8c9a8c8b9497U,
  0x949894908b919190U, 0x8f8c9a94978e9c93U, 0x8f928c95978e9a98U, 0x9a9499929296908bU,
  0x8b8d949890988d93U, 0x9393918c998e948bU, 0x948e969093968e99U, 0x8f968e9695999598U,
  0x9692968c8b978f94U, 0x99908f939595968eU, 0x8d96938e9a918f8dU, 0x99968e9494939090U,
  0x8d98989392978e8dU, 0x958f989599998e97U, 0x8f99919593929394U, 0x939594968e929293U,
  0x8b9b9a8f8e8f978fU, 0x979a8d8d8c99928eU, 0x93958b8e9b938b93U, 0x9896978b918e9692U,
  0x95929098998d988cU, 0x988f959095969495U, 0x9093928e958d8f8fU, 0x8e998b8c938b8c93U,
  0x9991958d9290968bU, 0x8c928f9a999a9794U, 0x9094979996939192U, 0x8f9a918e8e8f988bU,
  0x949291959b948d97U, 0x938f8f999b8c8f91U, 0x949896908c968f8fU, 0x8c99948f99929594U,
  0x9a988f9290929690U, 0x8e99958b968d908eU, 0x9898998d938c9a96U, 0x8e98949191978d95U,
  0x918c8b9694949695U, 0x989694919093979cU, 0x9491918b978c8e93U, 0x8c8f929090929394U,
  0x929694999d928f9cU, 0x8e9a91988f988d94U, 0x978d9b8d918c9996U, 0x929b9c95978e968eU,
  0x8d9a8d8f93968f8fU, 0x998b948c8c979891U, 0x918e8e9c8f90958cU, 0x928e8c8c9b8d9598U,
  0x949398978e8c9093U, 0x9490908c8d91948eU, 0x8e8e91979d999492U, 0x979297918b99908dU,
  0x92948f8d8c969390U, 0x8c99908b968c8d97U, 0x9697938f949a8b9aU, 0x8c9296969099998fU,
  0x98938b998d959391U, 0x92999390918e9396U, 0x968b979097929091U, 0x9893938f9798938dU,
  0x8d8e9199989d989aU, 0x8f8d90979c93909aU, 0x94948f8c92929695U, 0x8f90988b90958b9bU,
  0x91948f978c949094U, 0x918e989196978d90U, 0x92988d92918f8c9bU, 0x8e9493969591938dU,
  0x8b95959c99968e96U, 0x9490969090938f92U, 0x968f95969999918fU, 0x959492909d909a8cU,
  0x8e8c908b8b938e95U, 0x949699948c8b9893U, 0x8c8e938b918b9a97U, 0x9091989891939a8bU,
  0x93909c8b99959694U, 0x92919492969c938bU, 0x98948d978e909096U, 0x8c988e909a938b96U,
  0x949a91918d918f93U, 0x968c989a98959093U, 0x9291949294949797U, 0x8c98908b9597948fU,
  0x949696918c96939aU, 0x998b928f928f8d98U, 0x8b9a9190998e9293U, 0x8c8b919090919890U,
  0x929796998d93918eU, 0x93968e9696918e95U, 0x978c918d99919692U, 0x8e978b95968d8b8fU,
  0x8c9793929a958f99U, 0x8d958b9a998b9190U, 0x939499908f8b9795U, 0x909198919a8d9190U,
  0x92938e8c9997968cU, 0x939495938d959590U, 0x8f95978c8e93968bU, 0x9894928d96919593U,
  0x9a928d8c92949493U, 0x939695948b929599U, 0x99968e9598988c99U, 0x92978b9490988f99U,
  0x91988d90968c8b96U, 0x918c9096968f928dU, 0x9b909092909c928cU, 0x9c97998e928c9097U,
  0x989b928e8c8c958bU, 0x8b9a92939297918bU, 0x8e8d938f998f9096U, 0x9593919298978b92U,
  0x918b9396968d9496U, 0x969995979093968dU, 0x908c928f94938f96U, 0x8f92928f9a939698U,
  0x929095988e979a94U, 0x99918b9590949790U, 0x998e939598918e96U, 0x919396988d8e9a96U,
  0x9c9a94909292969dU, 0x969199978f98999cU, 0x8e908b929191908eU, 0x9596989491919892U,
  0x979a948c998f9191U, 0x8d9c96999a8e8d8dU, 0x99958d949c979696U, 0x929592958e96968cU,
  0x928d93938f969793U, 0x8d9496938c949098U, 0x8f8d929499909290U, 0x939495929c92969cU,
  0x90998c8e92978b8eU, 0x8f9497948e94979aU, 0x8e8f959594938b98U, 0x909a94948d998f99U,
  0x8e8e8e93969a9396U, 0x8c96929c99999598U, 0x96939992948c8b99U, 0x8c9a8c959798938dU,
  0x9096989990938c9cU, 0x968c93928c8f9795U, 0x95908e909491958dU, 0x9c918f929b94918dU,
  0x919697978d8f8b8eU, 0x96938e8f97939b8cU, 0x9996969191959a8dU, 0x95908b8e94908e8fU,
  0x95918e98938b9d8eU, 0x979391969194928fU, 0x9397999194908c93U, 0x9397968f9c9a9b91U,
  0x968b91998b938f94U, 0x928e94928d929a8bU, 0x95958b9597909895U, 0x8e8e969998999190U,
  0x9496938f96929798U, 0x99988d949896938dU, 0x969a90958e8c9393U, 0x8f958b9991949092U,
  0x998f96949997928fU, 0x958c8e8d92929198U, 0x8f93979990968e9aU, 0x9895908f938d8b8dU,
  0x92988f8d95929699U, 0x8c8b8f8e8d91968eU, 0x979497939696969aU, 0x938e939696959896U,
  0x8e948d94918f908cU, 0x988f8e958f969398U, 0x979292969497928dU, 0x92959097938b9595U,
  0x959597989b979291U, 0x908d968b8b998f9aU, 0x97978c9696949995U, 0x999a98939a8f8e93U,
  0x97978c90918d8d8fU, 0x908f8d938f989990U, 0x8e988d8c8b9a999aU, 0x988d938e8e8d9290U,
  0x9a8f94939897998dU, 0x919499949a91938eU, 0x99968b9893998b91U, 0x929c938f98978d95U,
  0x9792939a928c8e96U, 0x9497979497978c91U, 0x8d9293949896959aU, 0x8c9491909996968fU,
  0x98948b9298979c9aU, 0x989c978d8e8c8f8fU, 0x978e928c8d919096U, 0x998d8e9d919c8f94U,
  0x98929c8f93959297U, 0x96948d9192979494U, 0x98969a9192999192U, 0x938d9097988f929dU,
  0x92948c95949a9492U, 0x9a988e958c969094U, 0x94929c988f949295U, 0x949395909594928eU,
  0x8f9792958f8b9a95U, 0x9395939391968f8eU, 0x8f91988e93909393U, 0x98979796948f9c92U,
  0x998d91928c9d958eU, 0x928f999091968e94U, 0x908f959896979293U, 0x9b92948c8c919994U,
  0x9994998d9690978eU, 0x9c958e94938d9195U, 0x978e8c978e929897U, 0x8b989b9d998b9192U,
  0x8c8b9a8f90988c95U, 0x8f8f95948f979196U, 0x978b9890998d8c98U, 0x9893978d8b9a8f8fU,
  0x94918d8c9394948cU, 0x8b8c998b8f919598U, 0x9a979298928d8f91U, 0x919a8f988e8e908eU,
  0x938e9a9797998b97U, 0x9297969a9a918b96U, 0x8c96939a9a929697U, 0x96919990988f9599U,
  0x998c939697908c8bU, 0x8e8f8e9994929496U, 0x8f9798928c979592U, 0x988c8d9292908b95U,
  0x99959297988f998fU, 0x9894958b94918e94U, 0x90998f9a9091938bU, 0x998d8b8e9d978b96U,
  0x8b9490928b959498U, 0x8c939b9195988e91U, 0x9a948b988b909791U, 0x8d989292929a9a98U,
  0x968b979297989c95U, 0x9095949698929297U, 0x8f948d8f8c979599U, 0x99938c938e969891U,
  0x948e9c8c8d948b94U, 0x8c8b928d96988b9aU, 0x8b939995969c9794U, 0x978c8d9796909291U,
  0x8c908e9b98959091U, 0x988e8b948b988d97U, 0x9797939c97938c8bU, 0x938f8c96969a9196U,
  0x948f949299979098U, 0x979297938d96978fU, 0x909096958e8c9695U, 0x8e8f8b95988b9790U,
  0x998c8b90938c9991U, 0x8c95939693908d8eU, 0x91998f948e8b8f8cU, 0x8f9097958e979195U,
  0x989d919494979595U, 0x8f988c968e979196U, 0x929790929095988bU, 0x8f968b9494968f92U,
  0x95929a968e978e9cU, 0x98909d909a9a8c94U, 0x93978e9397969893U, 0x998e8d968b8f9a94U,
  0x98919a8c91919992U, 0x9899908e96938f8bU, 0x938b8e948f98958dU, 0x90989c9194958d8bU,
  0x8d95918d9099948cU, 0x98998f918e9a9392U, 0x9c9791979a8b8e96U, 0x98978e8d94959096U,
  0x958d9793998d9791U, 0x99928b9697929393U, 0x8f90978d9a92908dU, 0x8e8c9a8b938f8b8dU,
  0x8d939a8b968b9198U, 0x988d9993908f918bU, 0x9a98968b8e96998bU, 0x908d9a9791929598U,
  0x958c8c9093929499U, 0x8f998f8f94908e98U, 0x9192948e9a8e9898U, 0x8d8c909197949a95U,
  0x909295919498968fU, 0x8b94959697989797U, 0x938b978f8b978b93U, 0x9696918f94959390U,
  0x9497929492948b96U, 0x8f9a98969c8e9192U, 0x918c979a8e8d9096U, 0x988c9295949a938eU,
  0x9092919a94908f8fU, 0x8e919a959a8d9498U, 0x958f8d948c968f8fU, 0x968b98958c999692U,
  0x8b9495939495958fU, 0x96919896968c908eU, 0x969090938e95938cU, 0x96959292998d948bU,
  0x91918f91959a9895U, 0x9a97919398909091U, 0x9890929a93909295U, 0x8e96969998999097U,
  0x9a92979497989894U, 0x92918f9293949596U, 0x8c94949592938c98U, 0x9792999191969295U,
  0x948d929891948b92U, 0x998f8c8c958c8f8eU, 0x958e96949a8c908fU, 0x8c8e8f9295998b8dU,
  0x9a90939a968e9d8dU, 0x9392938b9a95939aU, 0x8f8e928d9b9b8c97U, 0x928e8e9795909691U,
  0x989a969393908e8bU, 0x9299908c8b98918eU, 0x9297928d96939493U, 0x959190999490908bU,
  0x8b97979897928f95U, 0x908f98959b8e9491U, 0x978c909493919098U, 0x94969898918d9492U,
  0x8f968f9199988f93U, 0x8e8e9292988f989aU, 0x8e94948d8e98928eU, 0x8b928f97978e9092U,
  0x9a94928c91918f94U, 0x96988b8f8b999498U, 0x8c93908d8f979295U, 0x989991919a999296U,
  0x9191978d95949492U, 0x969697948d8f958dU, 0x929a8c9495959395U, 0x9d8f8b9399929095U,
  0x8b9a9c958f9a918bU, 0x9c90908d8d928b96U, 0x9a9598938f909098U, 0x9597969c96939695U,
  0x8e908e969893988cU, 0x9795948b8d949a8eU, 0x959495918f98978dU, 0x919790949592958dU,
  0x909a9a928f938b93U, 0x9894949698969295U, 0x94978f9893939695U, 0x9592918b93918f98U,
  0x97939a8c8c919699U, 0x988c8d94908b988cU, 0x9991919391938f90U, 0x958c958e99998b98U,
  0x8e9a8f9192968f90U, 0x969295939697998cU, 0x978c8e92928b9596U, 0x968d998d8d998e92U,
  0x90988c909195948bU, 0x8f8b998d9595938eU, 0x938f918d9a999393U, 0x8e96968f959a8c8dU,
  0x938f8e8b94948e97U, 0x9190938b96988e93U, 0x959b968f96959098U, 0x8b93968f93939593U,
  0x8d8d9b958d8f9990U, 0x8f97929a8f969490U, 0x92988f9a91948e98U, 0x99908c8d8e97948bU,
  0x9499948c8e958c92U, 0x9896938e9697968fU, 0x9491968f8e948d96U, 0x8d8b989c8c94998bU,
  0x989096948b908e95U, 0x9894908f9796948eU, 0x94939d958f8d9598U, 0x9a969c97938e9896U,
  0x998c8e9896939a9bU, 0x8c948e8e978e938bU, 0x8f8c8b8e9a998d9bU, 0x8e99909396909692U,
  0x8f8f939c92938b96U, 0x8f948b90938d8b94U, 0x94918e9c8d999792U, 0x9d95998b8f8f9993U,
  0x968d979991969793U, 0x9198989a8d94988eU, 0x8f909290908c9a91U, 0x90959298928b938bU,
  0x988b989a90969694U, 0x9496928f8e909291U, 0x8b99999695959696U, 0x9797969498968d95U,
  0x8b948b8e90949791U, 0x908c938e92939494U, 0x92918e8e98969594U, 0x968b9a919c939391U,
  0x999394989a92929aU, 0x8e8b938c93938e8fU, 0x8d9d8c978c969091U, 0x9495948e8c8d9b92U,
  0x99929995988b998cU, 0x8c998f908c8b9c8fU, 0x919496918f998c94U, 0x8f949c8e9c8b9590U,
  0x9a979193998c978fU, 0x9a8d998f93979a96U, 0x8f8c96939b8f9794U, 0x9599939590909793U,
  0x949a8b8b96958b8cU, 0x988e959a8d949596U, 0x999198978c9c8d98U, 0x938f9191988b8e8eU,
  0x998b959a94968d94U, 0x8e9598929c928c8cU, 0x908b95908e94958bU, 0x8f95998f8f8d8f93U,
  0x9a909b9a8c8e8e96U, 0x8e958c8c98918b94U, 0x9298988d95979896U, 0x9a908c8c9690959aU,
  0x9a968c969a989893U, 0x949695918f919290U, 0x948d9a8d8c8c918dU, 0x95919a8e958b8d90U,
  0x8f8d929090979296U, 0x8d918d8f8d978f92U, 0x8f94939396948b8dU, 0x988f9596919a9693U,
  0x988b9790978d939cU, 0x938e908f8f8f8c90U, 0x9b93919194909197U, 0x8c97958b988d9290U,
  0x8f91989593958d8eU, 0x9298919292959296U, 0x988f938b998b9897U, 0x91988b99958e9495U,
  0x9393908e94949592U, 0x939292908b8e9993U, 0x9b8c959396978d94U, 0x909090909591958eU,
  0x9394979493919197U, 0x928d91969a91949aU, 0x93998f9891999697U, 0x989a8d97928c8d8eU,
  0x9890978e998f9994U, 0x918c8c8f8f909a93U, 0x95909390939a9797U, 0x958e9a8c9993958bU,
  0x9a988b9798978f91U, 0x9d99999798908b8eU, 0x9491979494959797U, 0x8f94988c9995949aU,
  0x9b928e9693998f94U, 0x8c9998939298939dU, 0x909391919297908fU, 0x998e8b8c9191958bU,
  0x99988d9a90949790U, 0x9994928d8d8e8f98U, 0x94988f9090959296U, 0x8d8f8f8f8d919b8dU,
  0x8e938d998f969b93U, 0x98968c978b8c8c8eU, 0x8e90988e8b908e8cU, 0x9a9a8f8b93968b94U,
  0x9a8e9b8e92998e93U, 0x979990978b9c8b8fU, 0x8c91988c9a95929cU, 0x8e988d998b969093U,
  0x908b9198928f948cU, 0x8e9a958c90949399U, 0x978f938f97928c96U, 0x8d958d8e91979097U,
  0xac998fa2819eb28eU, 0x92aea7908ac782a1U, 0x9ca6919484929b92U, 0xb48bb7a599978989U,
  0xb588939c9ec7bfa4U, 0xa57f9b87a2a37195U, 0x9fb48799a39da397U, 0xa894938f9e6d6e8fU,
  0x8e759fba7c79b09fU, 0x7f8c909e98d69777U, 0x929da2b9a7bc92bdU, 0xb2959966aab08a8bU,
  0xa88da69a8e9ecaa4U, 0x8fa58b749f86a588U, 0x979399908b918ca9U, 0xaa8c969189779ba9U,
  0x928c8b757dbd919fU, 0x93b08d91787b86a9U, 0x928c9a89968f8c8eU, 0x75a39d8995637b92U,
  0x74878189b7998c8fU, 0x9e83828b7e7d6e79U, 0xab818d8a72a67a8eU, 0x82988381738e8e87U,
  0x9693a49b7f8f79a4U, 0xa095a2aa9f8e81a1U, 0x7e9e77a78ca4a39dU, 0xaa958ea19fa89883U,
  0x8fa87e8c94a39996U, 0x9ca1a8b38080a19bU, 0x7ca8938a979b8fa5U, 0xb0a3af9d858c9da9U,
  0xa69b899a9aa3aa8aU, 0x8daf7d8b89697b89U, 0x89b090a47c91a48aU, 0xb49b6e949b8fa788U,
  0x8e598c5c758e95a6U, 0x8281628172828788U, 0x908c917573909898U, 0x67999c7780926971U,
  0x8c9a79b08ba28e89U, 0x808c6daa9ea395a2U, 0x847e9f878099b57fU, 0x729b8d9a69c8829fU,
  0x83b9915b77a49b91U, 0x81a56eb5847ba88eU, 0x7c7573647e8786b3U, 0x6eaaa8a58d9a71c5U,
  0xb38d8e9398ab7ea7U, 0x97a686937c9fa394U, 0x917ca0847e998b89U, 0x99a587939f7f8196U,
  0x9879b155a07fa59fU, 0xa281778f9e829197U, 0xa5ab9294989d838aU, 0x959b7ca3a7839d87U,
  0x997da0818dd5bb91U, 0x9c8b6978aea495a0U, 0x8a71aa8ca291947cU, 0x819e9ca66a87787eU,
  0x96a97b7c87aaaa94U, 0x8f836e9e7782a17fU, 0x9289a76e9783a384U, 0x848c8f95988c659bU,
  0x839f89468a787677U, 0x91915b95bc676173U, 0x8d7591797f917d8dU, 0x738c709a93909188U,
  0x49719c4f5d6593a0U, 0x87836d73797c6f7eU, 0x90ad8b7050b2858fU, 0x8999889c8a8a998bU,
  0x8e8f7f777e7a769bU, 0x84865c5b91897d68U, 0x5c465b95787b8756U, 0x6597969063717395U,
  0xa59d4663868c8a6eU, 0x7d7f7572a180777bU, 0x6b86a47193708b82U, 0x667e99907483578bU,
  0xa1a6868f74648b94U, 0x8f7b80a4ac739391U, 0x79a990839b999094U, 0x7d8f8c8e9a969a82U,
  0x778396a276778983U, 0x82a289727582814fU, 0x808c89778a9fb37dU, 0x74949c7e8e859291U,
  0x979e6586a17a8596U, 0x8cab9a8e7d93868dU, 0x9c79978e7874715bU, 0x66988e8b95859895U,
  0x749e50a4898ea57eU, 0x808b8c8b90838895U, 0xaf95809da1b89991U, 0x6f839a976c739c95U,
  0x8698a0977f654183U, 0x8ea15b9f65868966U, 0x6f399599808b8d9eU, 0xb77169989392978aU,
  0x8d79937d81648a87U, 0x86a37d8c8c8f8a98U, 0x75848197978f8c90U, 0x8b99707f859ba792U,
  0x9a7c8a589c878c8aU, 0x9a8890678b917384U, 0x6275947f8279735eU, 0x6d8d987f9f39a574U,
  0x8294938792747a72U, 0x7d767a6e7c7ea3aaU, 0xa6758779a9958e40U, 0x729381959d729b96U,
  0x9d919e9ba0a19385U, 0x9a837ab891798b7bU, 0x8a8599ad9c996ea4U, 0xa095659d9ca8b69eU,
  0xb775a7c77a7f7c8cU, 0x87b060816f988895U, 0x7c89917c979e7896U, 0x7499847ea6bfb4a5U,
  0xa2757877978a8a98U, 0x90b1bb6ea7848592U, 0xaaa5948c867b7c8bU, 0x72919a8ac4a6aab1U,
  0x7eacc771a5899871U, 0x6e73727d68809caeU, 0xa7777c97b4b39a91U, 0x90a791958686c489U,
  0xa090949b8ba493c7U, 0x9f8ea698af8eafb9U, 0xa7a89f9a849d8a95U, 0xb3adb1b397d6ac89U,
  0xb09c90cdaaa2ab96U, 0x96a7af8c879a84a7U, 0x98a59185bcbabe9aU, 0x969e9193a7949b90U,
  0x92a984acb5a6a49bU, 0xa3a6aea9ae87939aU, 0xbbb6b0a49c9f9485U, 0xa49c949ecda0bdadU,
  0x958ea7959f8da5a9U, 0xa693aba38a94909bU, 0xb48a9796bfa684b9U, 0xa9938c8ca576e589U,
  0x88a28e84a9909391U, 0x9285a9a682998494U, 0xb8879575b199987eU, 0x7fd1b69897a19090U,
  0x98919e94c0acae89U, 0x9c619ea7a18da5a8U, 0xb1b789a0a095a18cU, 0xb088868ccd6f737fU,
  0x8f7ba5a08ab1a78dU, 0xb76c9ba492b0c185U, 0x9fbcbd98a1ac9aaeU, 0xaa9b9687ab7a8575U,
  0xab7fafa19da9b49fU, 0x7d7d8a909e749377U, 0xad92bfb176b89e9bU, 0xb1999790bf8b8e91U,
  0xa09e92b298a09797U, 0x8c7e829cbfb49391U, 0xa998956d9793c08fU, 0xb7a385a38fb19ea2U,
  0xae9290b58d98a97fU, 0x8f6279a9b49c9fa1U, 0xa1a7a4a199a4a586U, 0xaf91ca959b5a6489U,
  0x8b909ea3ae90a797U, 0xc16bb89e96b79985U, 0x9fa1a29ca99b9288U, 0xb69b9697a8a7c266U,
  0xb290c673938fa895U, 0x978c98907d7b8aa2U, 0xad84b0897ea79f98U, 0xa89a939da376bfa7U,
  0xa28ea0ba829faba3U, 0x9ba7909db586799eU, 0x68af977d6b9da197U, 0xad6baab498a78f9aU,
  0xb09b83978bb0999dU, 0x738b91959e90849dU, 0x788a8e8ea881bc9eU, 0xa496ba887481758bU,
  0x92989fc29b7189a0U, 0x9d70ad9f9caa788fU, 0x7897af93a5b09790U, 0x9e89989789b79a87U,
  0x659f9aa797917192U, 0x9c9a9fa2929099a3U, 0xb0948c7179a188abU, 0x9bbd9d8da17c9db6U,
  0xa17e95bc79759b8cU, 0x9ab965969ea19a82U, 0x67998e94858e7893U, 0xab728ea4917ea296U,
  0xb380a4b17da379a1U, 0x738a797d7c9676a8U, 0x8c77909ec288ad92U, 0x8f97b29170869784U,
  0x95758fa98cab8891U, 0x8495afb6a26d93dbU, 0x7faea281809479adU, 0x9b929688baaa858dU,
  0x5b9da08a917f90a1U, 0x6b8e6b9e9c77bc92U, 0x9289637da4af819dU, 0xa4ac788f8983b3bfU,
  0xaa958b7ab1aeb7a0U, 0x8cc79881868b91b7U, 0x8ab38e75899b8889U, 0x6ca5a48796778289U,
  0x8aa3964b89819dbeU, 0xb3869f92ba83a0a4U, 0xabb39da56da37293U, 0xac90a08ea4a5937cU,
  0x8e9eb6a198b0aeb2U, 0xb3a169969b9c8792U, 0x648385b3a48ab97bU, 0x8b939a9f57b16ba9U,
  0x9a9a83818ca8b27fU, 0xa3a4bcadbfa1bd89U, 0x5fbb947b79469ba4U, 0x85aca292a88e46adU,
  0x6b9d863a8e8c6a92U, 0x8597767c90869280U, 0x9772999d79957783U, 0x57a5797090767487U,
  0x63667c3485649795U, 0x857c708f8f73948aU, 0x9696948f69827c99U, 0x819752947d809e96U,
  0x9672815a726f7696U, 0x939c367496707676U, 0x735473987f6d9e5dU, 0x589e928d44638988U,
  0xa39f2d7282a07780U, 0x7d7d8d5f90897888U, 0x5c7f97617c458c82U, 0x65989a9a788a3ba3U,
  0x76929551966a5f89U, 0x8c70827b8574866dU, 0x9c6a955a9f8f6c99U, 0x687f7692a0868396U,
  0x754d97497d787d8eU, 0x8167747389959391U, 0x918f807996997d90U, 0x818b62879b69797aU,
  0x967c83866b807b94U, 0x868352769b797d88U, 0x8484867878878074U, 0x74889f7b5d567a7eU,
  0x858251777b707d8dU, 0x7f7e7874727a8d7bU, 0x9070878378a37d7cU, 0x846a87a377825e72U,
  0x768c9c8568608c5aU, 0x906c8494b574686cU, 0x8a889477809d8197U, 0x7a85727c9ba18694U,
  0x7886887a3f646876U, 0x8875888779508a7fU, 0x78869b6c64909f8dU, 0x739ca1879c7b558dU,
  0xa1a47e7f8a5e6e9dU, 0x8d7d685f915b6b77U, 0x89706970796c5a4fU, 0x7287965471818171U,
  0x7c8e5f6389895a58U, 0x717769a4718e617dU, 0x85946ea46e888595U, 0x627873936f79717bU,
  0xad979da07e78659bU, 0x929884b19d7295a9U, 0x88849be4b38f7b9eU, 0xa9897b9a8f9dab80U,
  0x9c8aadd58a808890U, 0x92c2748a87a27f92U, 0x69829073a09f9089U, 0x65a093958dc3ec84U,
  0xa19e638da7807b96U, 0x83b6d07b7578909aU, 0xc174aea684614d74U, 0x7d9a9b9eca84b2c6U,
  0x87999a82b397a189U, 0x61757b917c949caaU, 0xa1868b97c1bb8e9bU, 0x6da49f8e9387dd90U,
  0x7b9098baa14f988cU, 0x9da36ba295958c7eU, 0x998d97c07b91519cU, 0xb1a178b8a1bfa1a4U,
  0x9f57a9bd555c8ea4U, 0x96ad6c9fafc2869fU, 0x8d999b8cb3acdea9U, 0x969995a5a5bcaf8bU,
  0x99819baa98919999U, 0x9b90b7c5b1afca91U, 0x976ccba4a34d557fU, 0x64949a98b5a3b1a0U,
  0xad9eb17bae80a3beU, 0x645965a84d82afb0U, 0xbc5f9177aea0a7b1U, 0x6aa3909b998a929eU,
  0x99929b88919da7a4U, 0x988dc2bd8a9c81b9U, 0xb19993bb8398b6a5U, 0x84c1b2a6949cb397U,
  0xc69e9cb9bcaec0a2U, 0x93ad94a18f878abdU, 0xcf8f92ae87c0a29bU, 0xc09a9fa89d9fb492U,
  0x908babaa9c928aa4U, 0xa2a0cca3aab7a69aU, 0x75ab9fa29c9c8aadU, 0xc29f908bc6bcb8a5U,
  0xbf8dadc2a8adafa9U, 0x959da5b0977fb2a4U, 0x889ca199c99a97a9U, 0xb88b9c9dbb81b086U,
  0x8b9a90b776c08b94U, 0x866a8ca79380838cU, 0x88a195578f93a793U, 0xa5aac9a39482a39dU,
  0xc1957e98bbc99a70U, 0x8c53888b8999a16fU, 0xac9c8493a8a38a90U, 0x928c9785874f5890U,
  0x92a1859899877754U, 0x836fab998a9c8375U, 0x9bceb07c9ec49cc1U, 0xd98c9b8da996b06aU,
  0x8d6dc890a2718e92U, 0xa39e9580956d7f94U, 0xb0a0929766a98490U, 0xc6798b899b759172U,
  0x7e949e90a0a2a67fU, 0x8e7b7cb8c076868fU, 0xa5a8925da492a898U, 0xac9b9bc29990adaeU,
  0x8f7676afa6b18b85U, 0x9b5f716364968692U, 0x879a876f9e9f918bU, 0x7788c5889b5c4b7fU,
  0x939377a593a7999aU, 0x9161a2c0988daf92U, 0xa7abc482699c94a0U, 0xb09093a09eaeaa56U,
  0x7c7aa5819f689f8cU, 0x8fa673b9927e8498U, 0x927ba57967829aaaU, 0xb29a7aa0738fae8aU,
  0xa89c9a9d6c9fc39eU, 0x94dba8adc69a8bafU, 0x6db48e969698ba9fU, 0xb68cbca596b09f98U,
  0xae869a9cbaae9db3U, 0x9a89a89b9a8b96abU, 0x798a9593959eab8eU, 0x9e9cb1958e8f7b7eU,
  0x97c9bda8b0a37ba8U, 0xa77798aa949163a8U, 0x74afb08cb498a7bcU, 0xb39b938a85b19c80U,
  0x85aaa18a929c9298U, 0xb9b9a09fa985b8a1U, 0x98958991829094b6U, 0xb7b7a999aa7ba0d6U,
  0xd490938e96aba2d0U, 0x8dc2866e9aaa9bceU, 0x93b096ae90938490U, 0x9b7e8782949b7c80U,
  0x8277af93998abec2U, 0x7ab979a8998692b7U, 0x958a96ab80b09fa2U, 0xdb99ae9b999ab178U,
  0x8bc3a3a88caeaf94U, 0xa9bd84a897c299a8U, 0x967f9ae6ad87898aU, 0x999d938f89c385cbU,
  0x719d869a7989ccabU, 0x919a8fbe897bb97bU, 0x9c82835fa18d9cadU, 0x87c6b599b67da3b6U,
  0xa1908f75a4a8ababU, 0x8cb89b76989caca8U, 0x8ca58da98892b285U, 0x9a80797f988b8b7dU,
  0x7f8fa588859587baU, 0x9b8ea7899cc47ea9U, 0xaa858b8f849c7290U, 0x878b83949297a77aU,
  0x8b969b9590ad8c99U, 0xa39390a39397a6a9U, 0x9c8b889c9699d270U, 0x8f90989c80a97987U,
  0x8ea8817b8aa28daaU, 0xc5c87fa1ab9dad79U, 0x7ba38e70978da88dU, 0x69b0ad9fa07d7da5U,
  0x918f958c82758b8eU, 0x859e65a18d616c6fU, 0x8d8e959f598e8982U, 0x8780708095828c76U,
  0x4e698d277759869aU, 0x8d8f756266816c57U, 0x8b729c749c866b93U, 0x6590748782858172U,
  0x91857299528182a8U, 0x7a8553848e8f8270U, 0x4d607c814f747a52U, 0x5b94936e337e6991U,
  0x878f526099898497U, 0x828c7b776c808764U, 0x647492548c3b9b97U, 0x3da5909e5e92278aU,
  0x7b9b8a657072656bU, 0x8782618c6c717083U, 0x873598747496a193U, 0x838874779d678a8eU,
  0x827a945380916b82U, 0x9a678770836e898aU, 0x85949bad728d6692U, 0x97976e8b8d798680U,
  0x8e80a1718286669eU, 0xa87a475379749577U, 0x7f7392837b7ea98cU, 0x928c91884f5b887bU,
  0x83945d8a918d8a6cU, 0x96997a5e9d8a6084U, 0x6496928989767466U, 0x6381a39e96896f82U,
  0x8296978282888c8bU, 0x97836d8e91865189U, 0x7c7b90796e99878dU, 0xa074769399a48391U,
  0x92728b695b568481U, 0x908f6e92917c839dU, 0x7a9897809a8f9393U, 0x6f9891917e7e8f81U,
  0x978a76759d7f7a74U, 0x7a917f8591917c86U, 0x67698f836a6d8a47U, 0x5e919679688b8b88U,
  0x8083979088809a7eU, 0x6a76617f91768f9dU, 0xa26f7b7c84aa7c81U, 0x5e75919284788398U,
  0x9e9292b9a96f8aafU, 0x8f93769c94958da2U, 0xa6a79ba48f9d8f97U, 0xab8c74a89190a898U,
  0xa48cbbb979938e7dU, 0x9ca088898a897f96U, 0x9f858f85a791c395U, 0xaa9e8886aab4af82U,
  0x9e9e8797b69a7c9eU, 0x7eb8a4a0958593a6U, 0x8589b3978e747d82U, 0x8c9798a0b0a49a9fU,
  0x7492957aa46baf9dU, 0x778c8b8a9989a8a1U, 0xcb78a485b8ada590U, 0x9a858d8eac87aa89U,
  0x7c9993cb8b91959fU, 0x8ea796989490979dU, 0x8e91a6a8b39b5a90U, 0xc3bb9ab297a1a483U,
  0xd2829cd58e738b8bU, 0xa9a3919d909aa9a3U, 0xa6a194a9bc95a897U, 0x9d948c9b8f95b692U,
  0x939fa492af9d97a8U, 0xa38fdeaaa29c9a81U, 0xaf97c67b9d909893U, 0x7d969e9eea94c5a7U,
  0xaab4c09da99b9fcbU, 0x8a926f8b9c8a9faeU, 0xb593a5a4b4c891adU, 0x87a9ab98a182eda9U,
  0xb98394a8a1a1aed0U, 0x9a798182a28fabb9U, 0xbfae9ca774939b9eU, 0xb4be91a7999bad9aU,
  0xab7ca0b07a8fc989U, 0xa2a07c848897919eU, 0xa4bb918a99a4bc90U, 0x9393a3a5c39aa299U,
  0x95adaca290a1bfb7U, 0xb1aec7afa2a2b3c1U, 0x8ca19f999a918e9bU, 0x9c9a9097a1aeafacU,
  0xbf8caa9b9b9da0aaU, 0x9ca281c17e7e9490U, 0xb082b887c1b58489U, 0x818baba0a381c189U,
  0x9299998a7fa69ba9U, 0x98a584a6a3919aaaU, 0x98a295769490b994U, 0xa0a0989e9ca0a29aU,
  0x9ba1958b9aaeb9aaU, 0x8e6a9a7d9d8b9192U, 0x98a8956ba1a09f95U, 0x8d8b948d98697e8fU,
  0x978e8183ab8ea689U, 0x7e769ba599bd7b93U, 0x75afa7976fce9c99U, 0xc1a39f9993a7a377U,
  0xa6a3b48a7874a782U, 0xa89e7e9a9d73aa90U, 0xca7da37887927ea2U, 0xba98889c868e849bU,
  0x7e99937f7ebfb082U, 0x8aac92b5b7517da2U, 0x8bb7945d8b909798U, 0x8c70a1ac90aa86a3U,
  0x6d7988a1a3aca0a3U, 0x85507574718e7d86U, 0xa99c8382a6a4b79aU, 0x6f92b19a9c58678dU,
  0x93bf869dab9c8373U, 0x8862a4a6a08a8992U, 0x85b7998e669d7e9dU, 0x91999a7883c0b274U,
  0x8984ab6b94a59895U, 0x897e89aa8e649a9aU, 0x9c7783775e968fc3U, 0x9bac8b9981818a9cU,
  0x92929078a98aa29dU, 0x8aa3b096899d98adU, 0x97a99180b199949bU, 0x78a670a68f8d8c9eU,
  0x91a296899d9896a0U, 0xa085a18d9aa79a8eU, 0xa48e8990629d9696U, 0x9f94b58796876e84U,
  0x97a3859db1aa98a0U, 0x9a89a69f9fa09fc4U, 0x98af89989fa39191U, 0x978a9196929d8f8bU,
  0x798e81908a9596a0U, 0x9f9d97a8b5a79d98U, 0x679090909488a494U, 0x89a19c918c7575acU,
  0xc88c96896b8c92aaU, 0x8aac6783a0a994a8U, 0x86919ab0848f8b93U, 0xae8c96a196a29197U,
  0x9d8a98a77f6fb0a1U, 0x90c46cb9a67b9fafU, 0x797a8bb7a69e9a97U, 0xa494a1956bc1b78bU,
  0x8b999690cf7d98a0U, 0xadd4949090978f85U, 0x897083a0ba8b6b8bU, 0x858c98b58592a0bdU,
  0x749d9b75a5a188a0U, 0x9682828d8373c994U, 0xa7847595ae9294a4U, 0x8fa69f98c08a87ddU,
  0xa39197909a81abbfU, 0x97b0909d758183adU, 0x948b93a37e998192U, 0x8782a57f97959095U,
  0x77679e72a291a892U, 0x93957c8279a5807aU, 0x9d9c8b8390928695U, 0x8b91718889afca77U,
  0x94887ca175aa9199U, 0x84a1839b8fa1ab91U, 0x9f9f7aa1988b6978U, 0x879899c4768985b2U,
  0x8f81909c9e94a1beU, 0x89847789807f86a4U, 0x6c828677b4948c8fU, 0x92969da093826189U,
  0x7f948e6593678a89U, 0x8f8d748c4f88787eU, 0xae8d948670935584U, 0x788a85708f669a89U,
  0x7f7d9d677251939eU, 0xa09d7c736f89658cU, 0xa99da17e7881708cU, 0x7a8b83898e8a888aU,
  0x85817e868b9b7a8aU, 0x7c947d858e959382U, 0x7a666b8979467b59U, 0x719497a295807b87U,
  0x94a47679749e9791U, 0x8c7989a6a08e9c75U, 0x78829779966d7b8dU, 0x60908d856f7b7596U,
  0x9a8a919b8c89708fU, 0x8680929ea57b9c79U, 0xad8f8e6290917e8bU, 0x96a192748c92727fU,
  0x7181905aa86b8c9eU, 0xa1736c859b958697U, 0x91b08ba1be96938cU, 0x988a9a95b1717c81U,
  0x8fa58081ad9ebc95U, 0x9c87726e95988b88U, 0x92919e7e8496837fU, 0x6a9f9c9b7d907376U,
  0xa6996b907a908990U, 0x87667a8f7d7e837fU, 0xc57caa8180858e81U, 0x8f6a88a07b777b8aU,
  0x7d8a9785796e7b82U, 0x8886879b956d7170U, 0xa7729b878a918c8dU, 0x7d997d759775918bU,
  0x5d9790766760568bU, 0xb4889d7791697972U, 0xb9a6937585938493U, 0x819b7b7fac778073U,
  0x94745e5a8d7f679fU, 0x7e8a6d7b916f7393U, 0x776b93656167b75dU, 0x748a94706d789292U,
  0xa292649c84a26668U, 0xa29399aaa3ac8182U, 0x769e93ac93a0966bU, 0x86988aa17f757884U,
  0x7d9a92a36e9f5994U, 0x9377928b9f986e7cU, 0xcb6c9ab988978d95U, 0xa2af858b948f8b91U,
  0x9681b27593778a8fU, 0x85987682a187799fU, 0x94a692a99aa1ba97U, 0x979a9382b1a39489U,
  0x9e838e5e9067a0a3U, 0xa39e797d9c9d8759U, 0x8184bc8d96917d6aU, 0x8b869f6c837c9c9cU,
  0x91859b89a1bfa060U, 0x797a764c888a7a9cU, 0xb16eb2709b788462U, 0x8790a69baa817951U,
  0xa78e91a7967a7d8dU, 0x928596b7a1849490U, 0xa17d97b880a0719fU, 0xae946ead9bb2a18dU,
  0x838498ad718298b2U, 0x9594998f9ca3a1a0U, 0x8d93968aa1a0b592U, 0xa097aaa29b95ab8fU,
  0x999b998997a98b92U, 0xb6a5c195988f7a9eU, 0x8177b19993707a63U, 0x8c97968abf8d9f8bU,
  0x9b96908aa78ba297U, 0x7d7280aa768a8e99U, 0xae7f939bada89f7cU, 0x76a88f9a9389b493U,
  0xa5859bba84a4b897U, 0x94aa91a581bc91a0U, 0x89a992b9719ea99aU, 0x987897ab959a9c92U,
  0xac66bab89ca3ab93U, 0x87a776bcbca796b6U, 0x8981a3cdb9a08594U, 0xa894839e7dacc17dU,
  0x9a8fac85d49d93a0U, 0xcbabafa5a79f919bU, 0x72b1a395b88ba28eU, 0x98a0999cb999bda4U,
  0x94a9c192c19da28fU, 0x7fae818a8a87aa92U, 0xb67f8b93a8c09894U, 0x8fb69d99bc83aca1U,
  0x7a9c95b69381a9a4U, 0x98bc74a39f4d9194U, 0x96b79062b69a86a6U, 0xa38684af95aaaa9bU,
  0x8e8192c77f87a2a3U, 0x8e668d7c58ae7a67U, 0x9a808862999c9996U, 0x5e9aa4889c6f619aU,
  0x9b9c448e7896b787U, 0x6065d2b49f9faab0U, 0x958eb07863939395U, 0x9a95968dbe9d9c69U,
  0x909da398ad7fb69dU, 0x7b7488ae6c8db698U, 0x8878717f86a387a6U, 0x919e88916a91d9aaU,
  0xa49288909ecc9e77U, 0x95b490a1c99a7179U, 0xb6b6915e8995aa8aU, 0xa47b959297a98d99U,
  0x93a07a93a1c08aabU, 0x885c78878a6f9196U, 0xac93859d9690bd8cU, 0x8594c39cb56c648aU,
  0x8fab9ab8b19f7b8dU, 0x94758d94b38f8991U, 0x6ab7b16e93bc99c9U, 0xb18b9c909ba29a7fU,
  0x9394968f998c569eU, 0xab9989afb2a0ab85U, 0x85969d89779996a0U, 0x9d90918d7e9182b1U,
  0x948a9091b089889aU, 0x989f749d939dc992U, 0x68929f77c0967e99U, 0x845c64949a8b9994U,
  0x81968d6e4f78a398U, 0x9d8988a291a9959dU, 0x83789fa29e7b8c97U, 0x84969e85a690998bU,
  0xa2819d859eafa9a0U, 0xab7b89688eadc0a3U, 0xc28495929589b468U, 0x7695979e83908c82U,
  0x6ebd8095a796b999U, 0xa1a29c859597b199U, 0x8ca156ad88858988U, 0x7e9189a3af968090U,
  0xa18f976597659991U, 0x9980859c899b9a93U, 0x689f9291a590868dU, 0x7d6b8c8e9a78a497U,
  0x629fb77a7a82bc76U, 0x9a88987a927d8983U, 0x8d5990936693707aU, 0xa792a4848c96928aU,
  0x9b8ba3a86f83ab9eU, 0x87a5909583888494U, 0xb8826ca19081a889U, 0x829a9884778f6a94U,
  0x7a807391839a8889U, 0x9a878b9da19b9894U, 0x51a682ab989f8ea7U, 0x7e7dac97b28f7d6fU,
  0xa289947e72858993U, 0x969887a476897f97U, 0xb5918eb4b895789dU, 0x7f9c768e9d76a3a6U,
  0x79799e95528aa299U, 0xb096868ca56a8a97U, 0x82af9d9980a7879cU, 0xac90838b7ca4bc98U,
  0x9b8ea68d9e8a978aU, 0xaaa587788c945a82U, 0xb78075a29875829aU, 0x8b8495607d9998a6U,
  0xb79b80a4ab767870U, 0x6f877d96868c9b9eU, 0x6576b3a998899b8eU, 0x7b90919ba89a838cU,
  0x8c8e9b95767b77acU, 0x8fb489a16d8d7197U, 0x836d93b87a909197U, 0x9ba063a29e80a08fU,
  0x8c8ca19651788bb2U, 0x45bb5fb0a0687aafU, 0x619a92a6877e839cU, 0xaa97728952afb59dU,
  0x9675ae58a2599e93U, 0x9eada18897807576U, 0x888ca2a0a08d8a95U, 0x6a9992689a7f9ba5U,
  0x78959d6eb4758f5eU, 0x8f6c83807a6abc9bU, 0x8e6a9373af897f6cU, 0x75a19399ba8695bfU,
  0xa38a998f7d89959eU, 0x949b849988bb85abU, 0x5f8993b0a3919f9eU, 0x94634b8f9883a19eU,
  0x9ca78f8d66839a74U, 0xa4ba95b3a76aa0caU, 0x925d9cba78867393U, 0xb19a8c8076a1a999U,
  0x9c8dad90aa76a390U, 0xb59f8f917daf7b8aU, 0x8f938b99ab94967dU, 0x8a998d8f937e9996U,
  0x6497a175948a958fU, 0x86a2779b859ea798U, 0x7f805d9f916e8390U, 0x999c8191d07b8985U,
  0x777d979c6f8c748eU, 0x936697a176a4759cU, 0x626c9db1b499b59eU, 0x874e50809581a49fU,
  0x99a2b0915f9ba663U, 0x609ba7a7bf708eb9U, 0x585f89bb68908195U, 0xc1a1908b739abca7U,
  0xa06cba79887baf8bU, 0x9593a78d90b37982U, 0xcc89739bb698a48fU, 0x948c947ca98a8983U,
  0x688591789b837f75U, 0x95a2a38da27d828bU, 0x7a96449dacd17472U, 0x76807f97a690a173U,
  0x9f9198a5bc81a484U, 0x97a48d9da0bb988eU, 0xa79c9b8fba8d909bU, 0xaea275709e999493U,
  0x999794b36586969aU, 0xd397a4c4c09aadc5U, 0xbb9e9ab59d8b9b9fU, 0xb89db084a2a59b9aU,
  0x9ab0d0aab39ea196U, 0xe3a49f939e93aea1U, 0xa4a2a689c99ab494U, 0x9c899e9fbc9e908bU,
  0x9da39e8182a58886U, 0xa5b5b696bda08b97U, 0x92baab9c92a790a6U, 0x809fc0a3c88ca894U,
  0x9d979bb784998e8eU, 0x94b5ae98b18b9778U, 0x779b8f96c89ba094U, 0xa570818a969d9791U,
  0x9f8597aa67b18b9dU, 0xc093a2a4916998b4U, 0x8a8997af917ea097U, 0xac96a7815e96b196U,
  0x96b6aa9aa76786a1U, 0x85a0aa84908d7392U, 0xb4b48d91b8b27fa7U, 0x9f909364a2a89c93U,
  0xa5a4a7859c839a73U, 0x87969ea587919d90U, 0x9d8d72aa9cb78f94U, 0xa6a78b9cab8691a3U,
  0x8a99a0a4ac9ea49fU, 0x9d9e919c7377a08aU, 0x8b889791a292979eU, 0x8e737890908b987fU,
  0x92859eb26bbaac89U, 0x8d839c9296a4baa6U, 0x806a9e8a928c897cU, 0x9f9c8a898fa59281U,
  0x93978f82949aa174U, 0xa28aada69391a5a8U, 0xb2c07b959ec8a9c8U, 0xad889b869b9ea9a0U,
  0x8885a2a2928ba9a4U, 0x9bb289b39f90ab95U, 0x848a87ae938f7e92U, 0xca97a196917cae95U,
  0x9191929a9ba782a2U, 0x8a8a81a0908e8398U, 0x709d8c7cbb95c7a0U, 0xa156609ba0a3969aU,
  0x9d9b757d59a39eaaU, 0xae72949c9eb799a0U, 0xa15b969b998ca4a7U, 0xab93ad854c887a82U,
  0x97a384a49caeaea5U, 0xaf7b8c9c98b8a3a9U, 0xb6a18694aaa9d88cU, 0xbe888db8969ca688U,
  0x71a499918f89b3a6U, 0xb8aba1b8c299b1a4U, 0x9caa729d88967faeU, 0xb09d8892a0817b9cU,
  0x9e959c6b76919fa0U, 0x93a882b1889294b6U, 0x97ad96a290908c9eU, 0x77a8759791ac9f8bU,
  0x778291a660a4a2b8U, 0x7c968aa9ab7a9bb0U, 0x56a993a9748f8c9dU, 0xbe949b75958d999bU,
  0x9cb39ca3ab6bb0b0U, 0xaf92a594a5a57c79U, 0x94ab869f9ea7ae88U, 0xa4a8987fa2b19795U,
  0x84937a9d9d84a684U, 0x9e9e77929478aa99U, 0x74969e94869d9e9dU, 0xad96a698b693a59bU,
  0xa98e9a91b9859cacU, 0x89b98f9488d3cbbaU, 0x7b8797bba991a9a7U, 0x9679548c978c9f91U,
  0x808f8f975ca5cba5U, 0xa3b4a7b49ca690a6U, 0x6a7a92c180927ab1U, 0xc09b88858cb2b28eU,
  0x9981c493a6b2ce8aU, 0x99c1a7a798d8a1bcU, 0xb7878fa5c680ae90U, 0x978aa0a5968f959eU,
  0x9e9c9781856eb9caU, 0x90a983b3a08f977cU, 0x7e8a83a098959293U, 0x9aa48c94af919d9fU,
  0xb88c94847286a0adU, 0x918f93949d8ea0b9U, 0x56ae8e909b95849cU, 0x8a4861878f9597a3U,
  0x90819b6d597bb1afU, 0x57b67db39e7dac9fU, 0x4f4285a9907b758aU, 0x9b9f899087b1a792U,
  0x9776a298a586c95bU, 0xb8ac619080a0789eU, 0xa97281a8ae747272U, 0x79969170779b88adU,
  0x5a826e809b4eab85U, 0x829782b19a6f7b77U, 0x6f79469189a0917fU, 0x8c776e90c688778cU,
  0xa88e986f605b84a0U, 0x9286749d959487a3U, 0x396d90a2ae93818eU, 0x8624589b918b9c97U,
  0xa383aca66581a591U, 0x55bb82a9ad608eafU, 0x3137809b9096898fU, 0xad9a79896ebcb799U,
  0x9096a8609d62a15fU, 0xaea09a8380ad6d83U, 0x9f766ea5b3677570U, 0x7d8d8f60ad8096b7U,
  0x51995d8e934e9b5cU, 0x75696c728268ad8eU, 0x807c3389b1a78272U, 0x74814c98a182b08aU,
  0xbf87907c82858c82U, 0x8d9287a2ae897f8bU, 0x248d96a7b295ad9cU, 0x814751829592a39cU,
  0x868bb79055a0a18bU, 0x78a68b8ba4747f99U, 0x51478e7570837d93U, 0x8899a78765a1c989U,
  0x968e9468a09d9f93U, 0x96b58476998a8997U, 0xa4957c7694838c89U, 0xa08a8f778d9798a5U,
  0x4aa87d95ad56865fU, 0x979d797c956c9688U, 0x7989308495af836fU, 0x98a2769b91809a7dU,
  0xa1858b9b8075908bU, 0x867389c5c7938a8fU, 0x3f9597c9c59cad9bU, 0x9e4366a49eb0b193U,
  0x82b4b89258827d89U, 0x3eb99997a68f9ab4U, 0x6c3a8e9e548dbb98U, 0x9b91a08457abbfc6U,
  0x91a99d8faa67887dU, 0xa7bab074918f7b6eU, 0xbd6880a19e719f7bU, 0x91849360baa5a1afU,
  0x41985baab37a8656U, 0x87ab887893759fa2U, 0x8a9d38cbc1be7f92U, 0x787a6c90a5829e8cU,
  0xa77f95aa9cb7ae79U, 0xa4a98caeab86ac7aU, 0x689b9ab5989cb39cU, 0xb97e78a98fb1ab98U,
  0xb88897bd6ba35a94U, 0xa6b174948f92867eU, 0x725a88a8c19794abU, 0x9196a08b6f9faba9U,
  0xa69a808e98b48b7dU, 0x9a97cbbb9b6b8bc3U, 0x9ca6bd8f9cb4989dU, 0xa392929ac6b7ad9eU,
  0x5ec5c395a46773a5U, 0x86887cac7783c09eU, 0xa9765790be969ca9U, 0xa0a07c8e8f93afafU,
  0x90959cc98f9cc186U, 0xa19d91959ebc958dU, 0x60a9977d8e97a19cU, 0xc25e739ea1abaf93U,
  0xdc918ab8848471a7U, 0x8e8993baa891a8b3U, 0x714c97b2b68e938cU, 0xc49e9d8a679e7aacU,
  0xa299a9afaea4849cU, 0x7d91c8d997738fc6U, 0x8aa5877ba999948eU, 0x978ea0b9cebd8a8eU,
  0x50afb6a0a06782b5U, 0xa79786d48e5e9c8dU, 0xc49261868f889da1U, 0xa89f9798ab96bcbfU,
  0x95849b938298a18fU, 0x9a7ba4888ab68586U, 0x9cb990939e97ad99U, 0xa1867f9c988e9e8cU,
  0xa1919fb176aa8e79U, 0x698ea09bb7a3abacU, 0x758490b68a75a293U, 0xaf9a9a958f828790U,
  0xa191c3999da39b90U, 0xbe8b998296958d8dU, 0x98ae928daec1a69dU, 0xb88b9fae9ca67882U,
  0x7384a3818c6a8d8fU, 0x94cc8a959472a67eU, 0x8d8f8b93759e84a3U, 0xa8a0839ac18b9c87U,
  0x8c9688af3c8691abU, 0x8d98a19b89af9a9cU, 0x579d9284be9399a5U, 0xac69508f93a19f94U,
  0xa87e90955ca3868bU, 0x7d7580b5a668abb5U, 0x745e9a8c8f809d99U, 0xa995a0843d83709aU,
  0x9697978ab35e9984U, 0xa773928b9e92557dU, 0xafae9397ad98838eU, 0xac989b6d919f8178U,
  0x8a8ec4947f769f91U, 0x99a891788a7a9190U, 0xa188659977a28795U, 0xa1968598b583a29fU,
  0x9c94a3a37998b59bU, 0x92b076a7a5b09b94U, 0x8abf927fad94ca99U, 0x99675fa89a89939aU,
  0x9a8b8ea068c5add6U, 0xa27c97b39e91a388U, 0x6488958c807fa096U, 0x9e9ca3889b7a8b87U,
  0x93bfb59aa292af84U, 0xa395a9d09c8a8ca7U, 0xa8d186a1b5a9b4b2U, 0xb7a293858dc59799U,
  0x69c19c7da36f8b96U, 0xa09c89e0aa6fbf91U, 0x80b1778e80ae96bcU, 0xb6b3ae8db5a8c0cbU,
  0xa9918e8a6c858189U, 0x9acc83a38692aca1U, 0x95919080aa8ca390U, 0x9f977b898fae8892U,
  0x6e8b97937083a1d2U, 0x938b858f9b7361bbU, 0x967d9aa280938fb0U, 0xba9a9395657b9096U,
  0x9077b26ea68fa691U, 0xad97ab79a39d837fU, 0x8d8890a19f98a082U, 0x9196988a95a0787fU,
  0x9fb77fa093b4a682U, 0x828c84808b70bb89U, 0x927f7a9b70b09c7fU, 0x86bfaa9599a193cdU,
  0xae8f8d959d89af9fU, 0x9ba687919abc829eU, 0x63879fa1b79f82a0U, 0x936e767a91889b97U,
  0x9c91a67c6381acb3U, 0x87ad8fbcaa90ada1U, 0x88617fa6a37e7b9dU, 0xba9e939386a4c19aU,
  0xa19ead9ba082be96U, 0x8c9b8c87a390859dU, 0x9e7a8f92d18e9686U, 0x888a949676998d9cU,
  0x6d93818c96999889U, 0x7e93a8bc898b8b91U, 0x898746ab9c747e7eU, 0x8691a790b9877fa3U,
  0xc78c926b9e8890abU, 0x8d828c9591817199U, 0x2f8b95b2739b8d8cU, 0x78457e909a579e96U,
  0x7ca69b71867b7e8dU, 0x56ac9c8b966d7076U, 0x413a8e7a5a7e6e85U, 0xaea171916fb5b799U,
  0x908d8b9f638583a4U, 0x80b0965f93865b7bU, 0x918c82978e9ab596U, 0x858f8f7f938493a4U,
  0x4d9e729ba2879384U, 0x9e8b9aa39f92a78eU, 0x619b2d8c978b9389U, 0x7c8e698a7c7f8296U,
  0xa89c8f7a759290acU, 0x8a8b818f86b56ec4U, 0x648c92bf9a988d97U, 0x64776293a27d9594U,
  0x8d7ca5767d909383U, 0x9bb2739d9f8196aaU, 0x927a95887d7f847fU, 0xa99c8c8c83abbe88U,
  0x98b4aa8e9c989a9fU, 0xa9a483618a8f7375U, 0x8f8d80a9a3898aa5U, 0x9795967d8e889aceU,
  0x7d907e71a3806e7bU, 0x89949b8586857e90U, 0x788a7a70b99c8eb1U, 0x86959e9bae997293U,
  0xa29692795c78ad93U, 0x8ea38db49b938f83U, 0x8e9395b7ca9c98abU, 0x849554a79c92a093U,
  0x729f9e915f82908eU, 0xa398aca58c6daf96U, 0x8c98a0917096898cU, 0x929ca893809ba498U,
  0x9ba19a918c758396U, 0x9ca68a899c7c5c82U, 0xc4787b879a688d5eU, 0x638c9f809595ada5U,
  0x988a8c9e8787696eU, 0x9289a4ad929bb1aeU, 0x749ca2bea99e8c99U, 0x6b99aa949b88a1a6U,
  0x8b9091bab36e9199U, 0x99a3969d87b3b990U, 0x919e9fbfa99bc3a2U, 0xa68261a9999dbd92U,
  0xc3aaa69c7fa388abU, 0xa8af8cc7abbd9cb7U, 0x83738cb894989297U, 0xba95928c86b0cf9fU,
  0x9775b07fb0b0bd88U, 0x88a4ac9497968bb5U, 0x8bb29695b5939a92U, 0xb597919fbea9c791U,
  0x7da9aca1c0828897U, 0x9abc7da6af7ec8b0U, 0xa180849dd2c2837cU, 0x8db5a398c9979cbbU,
  0x898897966c7ca276U, 0x93918fa58cad8285U, 0x64899fa0af9a9fa0U, 0xae695fab908fb7a4U,
  0xa29a93b05fac7c75U, 0x5b8793b59d82a9a7U, 0x5c7b88b89f747ca0U, 0xa292a38a6f917f9fU,
  0x9e96b8a298807a91U, 0xa087cb999d879693U, 0x95907b77ad9c9b89U, 0x91949998cbb49aa3U,
  0x61aca17b986a7393U, 0x8d9a95998ba5b79eU, 0x7b8f6d7fa0a59e9aU, 0x9daf9e90ac81a1abU,
  0x818f91c4966eaa86U, 0x957989ba9ba0959eU, 0x779d9c99b1939093U, 0x8e4c5c948f96a297U,
  0x9e84a19d60a28788U, 0x849485bea1ba8facU, 0x4b5b8aa2968b909dU, 0x9f95aa82857c968bU,
  0x9d93afaa87a39b84U, 0x8b94a7a789bbb9baU, 0xa7968a8cad97888dU, 0xad9699a398a58993U,
  0x6889b27d9d5aafb1U, 0x8295719ba785979fU, 0x8b715190b1aa8fb0U, 0xab926a8fb37db374U,
  0xa89693ad969989aeU, 0x94a0a59991c79191U, 0xb58f9386b1999799U, 0xbca6958b99b78997U,
  0xac89878f7e80bb89U, 0xb9839bbda987b0d1U, 0x93b39cbda095bc9fU, 0xd1988f82a5737e88U,
  0x90a4c08ea68dabaaU, 0xc684ab928bb98376U, 0xb68dad90c090cc91U, 0x7790907c8a9b8385U,
  0xba8bb9a3859b9f70U, 0xaa83a996af9e8993U, 0x9ea0b2957b86948dU, 0x8b8ba88dd1878497U,
  0x769d96b291a79789U, 0x93a876b28b848a7dU, 0x4a8f936b9f92bb94U, 0xae557a899a9d9795U,
  0x9c9581a1659e909cU, 0x828082a2918a9b84U, 0x4c5b8974ae9a989cU, 0x839a9f7f58796886U,
  0x9493768c99799a78U, 0x726e8ea688ad7079U, 0xa19d8b8285a5b0afU, 0xae879082b4917567U,
  0x4d98a594756a977bU, 0xaabf6ead9774ab8cU, 0x9381438270cb8292U, 0x9f8e66948b82a196U,
  0x718a967b8c819c72U, 0x8e8a749ba78ba786U, 0x79999372b59c9697U, 0x9572659898a28b82U,
  0x8a9685a76f937ca0U, 0xa3677a9b8a8eb2a1U, 0x727c7994927ea19cU, 0xa19ba891726c6c8aU,
  0x93a68f859e959372U, 0xaa6fa3a4918299c1U, 0x9fa79a78a4908e90U, 0x9d8796a39b96726aU,
  0x8e91888c8f7d6b9eU, 0x867e6cb09571a18fU, 0x85807497599a899dU, 0x97838f929f77a294U,
  0x9287947e729eba7dU, 0x999d769c9cb79880U, 0x669f99869895c098U, 0x863b929993999692U,
  0x8d9895898ea07ca3U, 0x7c87aad1a787a7ceU, 0x847b91a85d8e898fU, 0xa998a48f5d977c9aU,
  0x9397a596a87b8aa6U, 0xb47a8ba78f898f6eU, 0x958d7769c0a1c1b4U, 0xa091957e74a47684U,
  0x75a0849489887894U, 0xb3bbb09ca98c978aU, 0x7eb173948976999fU, 0xb0909891a7928fabU,
  0x90859b749699798dU, 0x92aa6daa8c9d979bU, 0x5b889894868f7c91U, 0x9d4b5c9b9a8a9193U,
  0x758e8ca4619c70a3U, 0x81b47b9c8875a4a6U, 0x4f5b9098ab7c7b98U, 0xa79677896faea99aU,
  0x96a08a8f9e989175U, 0xaea3928492748895U, 0x8d8196899b9e897eU, 0x80869387b38784b7U,
  0x65a7808390678975U, 0x708b98926867b490U, 0x64715e94a1989089U, 0x6ea07e91ad94a2b0U,
  0x938b906c518e8e8eU, 0x8c969aad828777a1U, 0x6c9d9a9f91959799U, 0x646684919c7ca38dU,
  0x6f8ca8806f9189acU, 0x59a08c91bd618983U, 0x75779b9b2d9c6894U, 0x959594885dacad9fU,
  0x938991954169808eU, 0x7ea37b8482895e7cU, 0x987a379c9481906eU, 0x828a937d80a49381U,
  0x937a697096858786U, 0x758a9b837f918f99U, 0x3a9764b1a18b849cU, 0x9899849086777cbdU,
  0x8f969e71768e8c6dU, 0x976687a363a56378U, 0x588a92a6a3968897U, 0x8b4a52989c779ca5U,
  0x8e799b8e49989771U, 0x40a28a917f6b878bU, 0x324a9796778c7088U, 0x96948d7f70969ea9U,
  0x9c81997d7c799da1U, 0x8cac778676888376U, 0xa4a071859f929693U, 0xb08e937c937ea18cU,
  0x4c948a8aa46a7884U, 0x7f9589a0856281a3U, 0x83815c7e8d859170U, 0xa1777f90a6938e7fU,
  0x9495997b708f7c8dU, 0x926d7fb3a3bdb576U, 0x876f9ca7c0939091U, 0x7e8b6d88999b9695U,
  0x79a0a2974c837d66U, 0x7e7fa0c0a46698afU, 0x627b98a9678ea898U, 0xb48fa9937388a79cU,
  0x99bdab69a454867cU, 0x949582608a7f418fU, 0xda748486a58c8898U, 0x808e904aa8988e77U,
  0x7f8489aa94596951U, 0x86997c79a29379a5U, 0x748385ce98b6837bU, 0x7f847e92a37aa95fU,
  0x8492938672789a66U, 0x9d9490bb9d96a56aU, 0x44aea1a8bd9590a7U, 0xad3b3eb79196b39aU,
  0xa7b186ae5b9a747eU, 0x6c9e90a1a57e94aeU, 0x44488193a47ba19dU, 0xa992a292058dae9eU,
  0xa98a9586846f635dU, 0x6fa1bcb087677391U, 0xae83978484857a7cU, 0x9d7f9278ad9ca4a3U,
  0x71988999a75c778eU, 0x7485818a878998a7U, 0x947a4a928bbc80a0U, 0x8c8967929a8dbe88U,
  0x769a89af8f6a9c96U, 0x8f6a8e929aa38a8dU, 0x9e908e8f7a968894U, 0xb49368889ca29390U,
  0xa184ac8b508b8c77U, 0x828b84b099919ca5U, 0x9089987bb38fa293U, 0x9aa191948e8d8f9eU,
  0x9d9e7fa4aba49262U, 0xb5867b9777a89478U, 0x6d73ab9eae8d887dU, 0x9f979b85a8a49689U,
  0x927c96a8948d7895U, 0x989b7b7d8778868cU, 0x94909655908a829dU, 0x8d835b97ae7fa07bU,
  0x8984999a9c7a8c8eU, 0x9e9ec2a7758fa975U, 0x718a9a9cc39ca08eU, 0xa76173ab969aa19fU,
  0xa99495d56eae6eb9U, 0x85a58ab9b29a9cb5U, 0x4f7ca2a19a7c8995U, 0xb3957a888c8d76a3U,
  0x9364a9a993ae95abU, 0xb78bd7b1927aa1c8U, 0xc5888592bc999c86U, 0xa2879ca6b7a19594U,
  0x67a08aab9c73828eU, 0xb0939fa5859fad91U, 0x837c459f98c2a38cU, 0x7599a099b591bcaaU,
  0x849da193a0af897aU, 0x94b2949db9ada98eU, 0x5a959d6fdd91c2a0U, 0x9d4c838d9ac09d97U,
  0x959a99a18ebfa99dU, 0xa57293b1b586a2a6U, 0x6e5c92c67e919aa0U, 0xae9cb1876f6b7094U,
  0x93c7ae86868ab39fU, 0xa4678fa19b9f8ba0U, 0xb5a2927cb8aca8beU, 0xbb87938bc1a48f5eU,
  0x52b69ebd6b7c96a6U, 0x9ec09eb8af969b9eU, 0x93955ba978b88d97U, 0xb1978c98b98cafa5U,
  0x7a8b94b0aaa2ac81U, 0x91868cc5ba9fc38bU, 0x55999763ac9dc8a6U, 0xb5675797929dab97U,
  0xba9585ca66a8acaaU, 0xac6faeac90aca9a1U, 0x786a9190af7eaea1U, 0xa194aa887880658aU,
  0xa194a8a5aec5b68aU, 0xa880999f9faeccb8U, 0xa3a7af7199c29ba1U, 0x949499bbbfa99791U,
  0x76849f977960b3acU, 0xa9ad93819e7f8f92U, 0xa4a25f6b93b18892U, 0x999e8289aa97ad99U,
  0x998a9b675f9e91abU, 0x949e6d936fa959a9U, 0x4b7e9393908d9c93U, 0x775c65a5907fa283U,
  0x958885906aa2839bU, 0x579877acbd5fa990U, 0x7a6e8f9c85877f9cU, 0x95948f862e9cb398U,
  0x968ba074ac6e7895U, 0x87a893a59da73187U, 0xacbe75a7a78876acU, 0xa9a49260a69b8f99U,
  0x5d9e8bad9c518b87U, 0x768b7b858b859a8dU, 0x7274578d8db78a88U, 0xa3a28893a199a2a9U,
  0x97869e947c919b80U, 0x8fc2729285a59892U, 0x6a94919ea88d9b9bU, 0x84546280929d9f9aU,
  0x7d86869d598c7fb0U, 0x52a97099c69693adU, 0x7a6993c29e72959eU, 0xc28ea590699c9791U,
  0x93969395bb918a74U, 0xadaab0987f837bacU, 0xa079789fc0819088U, 0x9b858f9d97a07b94U,
  0x5ab9856d8a909182U, 0x9f9e8f75747eb89eU, 0x8885458581889997U, 0x7da9879dba97b3b2U,
  0x8f94948d98959392U, 0x8d908e8f9a91938eU, 0x9b8d8f8c9690988bU, 0x8d948e95939a9390U,
  0x968e8f9598938f92U, 0x8f989798968f9297U, 0x94948f998f938c9aU, 0x9695919a8e9a9696U,
  0x9296979a99948b8dU, 0x98908b8e8b919497U, 0x9791908b9392998fU, 0x8b8d94908b8d9492U,
  0x9491959395979598U, 0x938c948d98949193U, 0x988e909495928f91U, 0x8c96958b99928c8eU,
  0x97978b9396909292U, 0x91978e968e938f9bU, 0x919594979b8f8f95U, 0x8f8b959896978d8bU,
  0x999692968f969793U, 0x9a92908b9a9a918fU, 0x8f9694948a8f8d90U, 0x8d9396918b949798U,
  0x918e929197919a96U, 0x959b958c928e9594U, 0x9a90938e8d8b9a97U, 0x95969a9499948f96U,
  0x978e978d908e8f8bU, 0x9a95929192989491U, 0x998c8f8e8c8c8c91U, 0x988f93948f949592U,
  0x989b988e92929394U, 0x8c90959992998f8bU, 0x988d9591948b9191U, 0x958f97988b919996U,
  0x9793919090978f8dU, 0x8e938f9197998e99U, 0x8e8f9a98969a918aU, 0x98938c959b8e9290U,
  0x8b8e8f949199988eU, 0x8c8b9a989a928f8cU, 0x8c94908b9b8e9794U, 0x8d8c94908d8c8f9aU,
  0x99998c9196968e97U, 0x919c8b9a95998d90U, 0x908e8f8c91999691U, 0x948f8d939198988fU,
  0x988e9596929a9293U, 0x8f8b958b8f989590U, 0x988f9b8f91948e98U, 0x98949298909a9291U,
  0x9694918c8b8c958fU, 0x96939a95978d8e91U, 0x92928d8d9a97908dU, 0x969a968d8c929b95U,
  0x918e9a97998b918cU, 0x948f998d8f98908dU, 0x8b938f919b989490U, 0x9891918d97959997U,
  0x8c8c9598908e998fU, 0x98939495978b9091U, 0x92979595929b8d90U, 0x92969a8c95999198U,
  0x97948b8c8f959590U, 0x9a988b948e939598U, 0x9397908d9a929293U, 0x958f928f8c949790U,
  0x938e978e8f909190U, 0x9793908c8d8e8f93U, 0x9290988f8c8c8b91U, 0x97939592978d8e93U,
  0x8f958d908e8b8e94U, 0x989a94988d8e938eU, 0x92958c9090949197U, 0x959094919094928eU,
  0x96919195939a998fU, 0x8b8d8e9394948d90U, 0x8f908d8c96969298U, 0x8d999693978c989aU,
  0x9491969199929696U, 0x989291998c939698U, 0x9298959a92969b96U, 0x93998f9697909895U,
  0x8f928e8e968c908cU, 0x91979392908c918cU, 0x938e918f92968b96U, 0x9c9596929990968eU,
  0x8b959a969a908e8fU, 0x9692918f93919295U, 0x8e93939296909692U, 0x96919798958f8f95U,
  0x8f929299998e9b98U, 0x988f8d95948e9592U, 0x98929b988e8f8d98U, 0x9b8d9a92968f8c92U,
  0x948b9494969a9a94U, 0x8b9596978d959a95U, 0x9a9198969895978aU, 0x8f948b9891978d8eU,
  0x8d958c908e90928cU, 0x8e8f978b8f918e8bU, 0x8a948c97939b919aU, 0x8c90929a8f948d8cU,
  0x8f909694918f9494U, 0x95918d9690989590U, 0x8c948b9694979794U, 0x9598909599999690U,
  0x989a979b8e939a91U, 0x8c918e998c979493U, 0x99988c93928d8e8eU, 0x8a9a8d9093998f95U,
  0x939994998b939997U, 0x9a958e9199928e8fU, 0x98948e8b99939790U, 0x8d969495908c8d93U,
  0x98908f9a96979690U, 0x8e9390959492998cU, 0x8d99989290959195U, 0x8d9692949b909190U,
  0x998d9a919398908eU, 0x9a9797928b95948eU, 0x959894928e8f938cU, 0x98939098988c9295U,
  0x998f9198998d908cU, 0x999498918f959299U, 0x959b8f989a94909bU, 0x919196969b8e9596U,
  0x939594959891998bU, 0x8a92978e98948d8fU, 0x8e918e90918c9997U, 0x94949a90978e9493U,
  0x92918f968e9a9899U, 0x919394929b989096U, 0x9392929898919993U, 0x958d9491939a8b8dU,
  0x8e9299988f939594U, 0x978e95959494918dU, 0x968b949894979096U, 0x8d94928e95908d99U,
  0x8c928b989a96958cU, 0x989098978e9b909aU, 0x98949b969a8b948bU, 0x94978c928e9b9b8dU,
  0x98929592918d9a9bU, 0x8f93979496998f91U, 0x8e97959293959198U, 0x8b959794959b949aU,
  0x8f8c9a939591918cU, 0x908d90929b999596U, 0x92908d919b939590U, 0x93998b8e978d9890U,
  0x9698948e8f929797U, 0x998f8c8c8b979092U, 0x8a9a999996918e96U, 0x91908f9390948f91U,
  0x918b978c96938f9bU, 0x908b998b97988f8bU, 0x958b919a9599968dU, 0x8f9397988f908c9aU,
  0x91949a8f8e9b9992U, 0x93919794908f8b8eU, 0x9a8c958f9295969aU, 0x9191988e9a959991U,
  0x91968f8e99948c8cU, 0x9190958c9899968dU, 0x8e918c9594968e8bU, 0x938b8f9294988f91U,
  0x8f919a96949a988fU, 0x8e938d999698918fU, 0x9392998e8f8d9799U, 0x9092948f8c909691U,
  0x958b918d94959599U, 0x909396939a9c918eU, 0x908f93969a908c91U, 0x90998d8b92969a96U,
  0x9591978c928f978fU, 0x98999b938b979b8cU, 0x9796979690998d97U, 0x8d8b91938e8d8e8dU,
  0x97938e8d92989a95U, 0x929b9091959a958fU, 0x8e8d8e8c9a8f908cU, 0x8b8f978d958c8e98U,
  0x988e8f989097958cU, 0x8f8d97939495928fU, 0x8b92938f8c959095U, 0x8e938f938b8f9898U,
  0x8c94999194939496U, 0x9098929b8d989495U, 0x9496979191928d8bU, 0x8b90969090908c98U,
  0x96918b9697908c8bU, 0x948e8f8e8d98948bU, 0x8a95948d908e8f95U, 0x8f8f8f9a8e8f8f92U,
  0x8e908d919197918fU, 0x8c998b9a99989495U, 0x8e8b98959b988b95U, 0x92918e8d8c8e9697U,
  0x95988c8c8c939793U, 0x8b9194938f938e91U, 0x9990978f908a8f98U, 0x8c968c8e9698959aU,
  0x8d998c9197988f8bU, 0x928f9292948b9192U, 0x999091938c8e8c96U, 0x8f95948b998f908dU,
  0x938f9490948b9490U, 0x918f9693938b918cU, 0x9b8e939199908d94U, 0x919594969398918bU,
  0x9597928b8f96908dU, 0x9499969694989193U, 0x8c90939b91928e99U, 0x8e90938c8e9b9a93U,
  0x8d9a9191998b958dU, 0x938b8e98998c8e94U, 0x9a8c97938c8e9292U, 0x8e969390988e9691U,
  0x8e8d92988e928d8fU, 0x928d8e949b959699U, 0x94938f9391929198U, 0x8f8b959296989794U,
  0x94908c8e908d9896U, 0x95938d8c8e988b97U, 0x948c8b9395949498U, 0x8e938e93938c9398U,
  0x8c8e8f9a9b988e8eU, 0x8d8f8e8f988e968fU, 0x978f94989093958dU, 0x969a948c96958c92U,
  0x9498989398919799U, 0x8e938d968d919295U, 0x8e909596959a9692U, 0x9198978c96939090U,
  0x9693929a928d9095U, 0x9a928c9590928b94U, 0x8b9592939a968f99U, 0x8f9b9c8f8d8d949cU,
  0x93948d998e918b8cU, 0x969294978f8e9394U, 0x8b8b938c9a959990U, 0x8c95928f95909196U,
  0x979a969394909592U, 0x9a8f939092938c90U, 0x8e9694998e8e989bU, 0x9090949297959192U,
  0x92988e8e90939990U, 0x969797919595978fU, 0x8e9494988c938c91U, 0x968c8b988d9a8d8fU,
  0x8f97939896949691U, 0x9b928a9a919b948fU, 0x9499989091979292U, 0x979494999496908dU,
  0x9992928b90949198U, 0x8e9393958a908e98U, 0x948c93909b94968fU, 0x968c8b96918f8b8eU,
  0x9998929298909596U, 0x99938e9a908d8f94U, 0x908d999990908e94U, 0x948d97998b8d9090U,
  0x948b93998e988f98U, 0x8e948e94908e9795U, 0x96998c8f908f9399U, 0x8d91979b9a969896U,
  0x9b8e8d979699978fU, 0x9a8b9291988c9b98U, 0x8e988d8e98909791U, 0x8e9690969793909aU,
  0x93918a8d91969695U, 0x988f988b8e979a98U, 0x9a98979b988c9693U, 0x948e8d8c8e989493U,
  0x91988c8b93979996U, 0x8d9890958d938f97U, 0x9b998f9c93909097U, 0x949097968f909498U,
  0x97969892988e8d94U, 0x9b928e94959b9b9aU, 0x9497918d90938e9aU, 0x8b92979a8e959b99U,
  0x999996998b8f9492U, 0x8f939290978c8c8fU, 0x8e9192978b978c90U, 0x8d95948f97999092U,
  0x9b9b9098958d9393U, 0x8d99968e8b8e8c8eU, 0x8f9892968c938c91U, 0x938e91959297988fU,
  0x948f969198949991U, 0x9b9298909797988eU, 0x9590989a8d8d9a8cU, 0x9a918e9492928f8dU,
  0x8d9398938f9a9293U, 0x928c958c978d988aU, 0x8e8d978f90919895U, 0x96948f9792978e9cU,
  0x91918c908e8e9b98U, 0x9091908b948c9293U, 0x95908d9a92908a8eU, 0x938c8f8f998e9191U,
  0x8e989992938d9699U, 0x99939290968b9599U, 0x8e93928b968b9896U, 0x9b94938f9491928eU,
  0x949192918b8c9698U, 0x9094978e96918d95U, 0x9595939297909590U, 0x8c96938c8c929291U,
  0x9595968b978b9294U, 0x8d958b9995929290U, 0x9990928c9a8c948bU, 0x9496918c90989a93U,
  0x9b96919997918e8dU, 0x968f8f9799979895U, 0x8f8f97988f8e9696U, 0x938e8e98948b928eU,
  0x989594978f918b92U, 0x958b8d8f958e9298U, 0x959091938d92938fU, 0x96958c928c8f958dU,
  0x8c9b978b98959295U, 0x8b8c959595938f91U, 0x928e8b9299969190U, 0x8e8d8d939792978eU,
  0x969893958e968a9aU, 0x92998f939493958dU, 0x948b8f9198969990U, 0x8d93928e8e8b958eU,
  0x969191919394918bU, 0x9890939a8f969096U, 0x94949b968d989098U, 0x8d909893938f9a94U,
  0x998b9395938b8f8eU, 0x9992968f928e948cU, 0x8f99958b8c999894U, 0x9695989a99929096U,
  0x988d8f8c988c9a98U, 0x8e96959996929991U, 0x8e9a8e978d8d9195U, 0x95958f96928f9899U,
  0x978b8e958d8c8d99U, 0x998b8f918c949790U, 0x8f98919097949999U, 0x968e959199938f8eU,
  0x909496938b928c9aU, 0x8c989499948e8e98U, 0x8c96999a97999a8fU, 0x92958d929390928fU,
  0x978d8d8c8f909697U, 0x969995938b909396U, 0x968f959791969291U, 0x988f9b938d8f9391U,
  0x8b95968c94958e8eU, 0x8e8f9b91969a9390U, 0x988d92988b939191U, 0x92969594938e9198U,
  0x988f928d91979292U, 0x938d98968c8b968dU, 0x8f958c9a9899928cU, 0x8e989a8f8b979299U,
  0x8e94918c989b968eU, 0x8e8d939793949399U, 0x92948b9996948c8fU, 0x979597968c919197U,
  0x8e97939a95959891U, 0x96998b91968e9199U, 0x9399948f92969497U, 0x8e918d9591969996U,
  0x9499949a9495958fU, 0x93919592908e979bU, 0x8d9a9793938d9398U, 0x95978f938e979290U,
  0x958f93939196908dU, 0x90949893978f9595U, 0x96998e988f9a8d8fU, 0x95989293968f8f8fU,
  0x94959a978f8e948cU, 0x998f958f96959095U, 0x9290979697998c99U, 0x99988e8e9a93998fU,
  0x8f9a8e96988d8d90U, 0x989b908b989a8b90U, 0x9590939499919297U, 0x99989c99938d9996U,
  0x8e958c9494909193U, 0x96928c9497988f8fU, 0x8e90978e8d978e9aU, 0x8e8b8d9999929092U,
  0x9490978c988d928fU, 0x98969792988f8f99U, 0x90908c9793989b9bU, 0x8e8c8d968f988e99U,
  0x918e8c9798918f94U, 0x9391928f8c8c8f93U, 0x8b9a95988f919298U, 0x918f8d94978b958cU,
  0x909b969495958f8fU, 0x949799998f8d9a8dU, 0x9292988f918d9594U, 0x8e8d93959a9a918dU,
  0x929c8f969693938dU, 0x98999698938c9891U, 0x8f948d8e8e919099U, 0x929a8e9a909b968fU,
  0x8d9b96919899919aU, 0x98959995989b9292U, 0x979993918d9b8e97U, 0x91959390959b918fU,
  0x9796939795988f9bU, 0x8f939694928d9092U, 0x8d968e9594978c95U, 0x93918e9895998e8eU,
  0x9592919498979a8eU, 0x8e9a8f8f94909091U, 0x9391949c968c8d93U, 0x8f93959595998d8fU,
  0x939296998b939794U, 0x9792949798979494U, 0x9a9b9295939a8f8fU, 0x95908e928e9a8b8eU,
  0x9b8d8b939791949bU, 0x938e91918e8f9791U, 0x92968e8e928f9690U, 0x8c8c9b998f92938bU,
  0x9098958d958e9b99U, 0x938d98969b8c938dU, 0x8f918d9693948d97U, 0x928b918f958e9494U,
  0x998d8c8c8f8e938dU, 0x8c8f94958b94918fU, 0x9196988d95979697U, 0x91939894948c9a8bU,
  0x958d8b8c94919190U, 0x988e98958e938d8fU, 0x988e91978f93999bU, 0x9194999192968f94U,
  0x9492909099958d97U, 0x929698989696958bU, 0x948e918e9097948bU, 0x99948f928b919293U,
  0x9194918f8f8b8f91U, 0x9b968e9696958d94U, 0x8f968d8d9493938eU, 0x938e8c929b8c9595U,
  0x9a8e978b9893908cU, 0x9b928c8e8f8d9196U, 0x91939797978f8f8dU, 0x9295928e8c95998cU,
  0x94928d9792939a94U, 0x8c8f999198919894U, 0x92998f939791928dU, 0x8c91928b8c8e8f8dU,
  0x97968e8f8d91998fU, 0x93938f92918b9195U, 0x9895919593909593U, 0x949a988e9096929bU,
  0x8d8f9497998f9596U, 0x938c979697918c8bU, 0x908f91989199978eU, 0x8e9291978d8c9293U,
  0x99969a928e9a998cU, 0x90928f8f8d978f92U, 0x8d958c8f95989b8eU, 0x919992978f97988bU,
  0x95939a959a999a92U, 0x8f9099908f98928cU, 0x95919092928e8f91U, 0x938e8e988e93908fU,
  0x9a909b9398938f98U, 0x8f9992919a8f908bU, 0x949596939395938fU, 0x969791988c8d8c94U,
  0x8e8f8e8e8e93988dU, 0x9496909799959a8eU, 0x97949a9998999594U, 0x8b96939b958e8c97U,
  0x968b8b94908f8e94U, 0x9999969b979a9693U, 0x9098988f908f9891U, 0x969a8e92998d9292U,
  0x989796958e8d9699U, 0x8c9695959599928cU, 0x9994919b8d968c8fU, 0x968d958d94918f8fU,
  0x8c978d8b988c9199U, 0x8d8b909693968f91U, 0x928c939799969190U, 0x8e8f8d9196988e9bU,
  0x928e9495958c8c8cU, 0x9a9a8d8d9a938d8eU, 0x9a8f9a8d8c909990U, 0x949194978e91948dU,
  0x8f979690928b9697U, 0x949299908f8e9297U, 0x989191938e8b9199U, 0x8f96929092909598U,
  0x9091968b9593938cU, 0x8f9697968c959692U, 0x8d999490908c988fU, 0x95928e9a8c8e8f98U,
  0x8d94999699909395U, 0x8b978b938c999496U, 0x8f8c999892918c9aU, 0x8e919a94938d8e8bU,
  0x8d9094969094968dU, 0x958b8d929598988eU, 0x969b92969992918dU, 0x908d919a8f95909bU,
  0x998f92938e989a8dU, 0x93998e989a909099U, 0x998d8f91968b8c92U, 0x979396978e998e91U,
  0x8d908c8b8e8b978cU, 0x95958b8b8e8c958dU, 0x8d9b999096958e99U, 0x928e9296938f9099U,
  0x8b9a909695999595U, 0x998e948f998e8c97U, 0x95918d92998f9695U, 0x928e959a96919999U,
  0x8f96958d90988d99U, 0x8b90998f8e998d8cU, 0x90928c978e96918eU, 0x99949297918c978fU,
  0x8f9799968e8f8e93U, 0x9193919a8a939790U, 0x93968e9596998f93U, 0x90949990938b8d8eU,
  0x988b939791949398U, 0x9891918f989a8c8cU, 0x938c95918d90968aU, 0x998e9994918b8b94U,
  0x9399948e90929190U, 0x938b969599938f94U, 0x8c9791968b9b9094U, 0x93958d968b93938eU,
  0x8b928d95938f8c8dU, 0x9298938b918b9190U, 0x8b999a908f8b998eU, 0x8e98938e8f8c9290U,
  0x98969a9297959198U, 0x8e97938f979a8e95U, 0x8f8e958b9098968bU, 0x90948f9399949096U,
  0x9198918f8b8c979aU, 0x99959797968c9491U, 0x9095948e988c968cU, 0x948e93969a978e93U,
  0x9499999b928f9a8fU, 0x92919293918c8f95U, 0x8b95908f8b8f9095U, 0x918e8e938c929399U,
  0x96988b91978d949aU, 0x9a9a989a8f948a91U, 0x968e988c94959b97U, 0x948f96909993988eU,
  0x9094919294959293U, 0x90908d948e998a8fU, 0x9a948d9697919396U, 0x928d8d8f9495918bU,
  0x939b989b9a929091U, 0x9192988b92919690U, 0x99928e8e92969a92U, 0x8d8d8a8a9498938bU,
  0x9a91958b998d8b90U, 0x8f8b94998c978c9aU, 0x9191918b978f9a91U, 0x8f979b8b94939194U,
  0x92908d9193978c95U, 0x979a989098918e9aU, 0x8f9492998d918d8bU, 0x979b928c9597988eU,
  0x9296968d91949290U, 0x8c9090978d8e8d92U, 0x9390968f9192928fU, 0x8b988d909a979099U,
  0x8e9194938d949298U, 0x97998d9093999993U, 0x9a9199979a97988bU, 0x989592918f93928cU,
  0x8e939798938f8b8eU, 0x8f92928f918d9599U, 0x948e928e8c959495U, 0x988f978d909a9197U,
  0x9b94978f978c8f96U, 0x8e93998f93959491U, 0x9198938c98939193U, 0x8e8b8b909598918fU,
  0x9193908d998f8b90U, 0x91938b9297908b8eU, 0x8b92929393968a99U, 0x91988f918f958d95U,
  0x9a949a8f958c988cU, 0x8f978b8c948f9598U, 0x8c988e8f98948b98U, 0x99989b99968e8c96U,
  0x9a8d94999391988fU, 0x8c8e8b968b919795U, 0x8f9992918c918f96U, 0x91928e9693909490U,
  0x8e918f95958f8b99U, 0x9798938e969c8e95U, 0x989092918c94928cU, 0x989899908e979193U,
  0x9899918d938d9294U, 0x9a93959291959391U, 0x8d939695998f8b97U, 0x91979496948f8e94U,
  0x969194949292928eU, 0x8f96908d9896978eU, 0x9695989a8f999895U, 0x939898958c969393U,
  0x8c97989395988e8fU, 0x8d988d99958c8b95U, 0x8f8f938c9295928dU, 0x8d91908f8d97978bU,
  0x978e978c8f909592U, 0x969997979099978bU, 0x938c959a8c989499U, 0x979296918e8f9a8eU,
  0x9497988d9693918eU, 0x999898938e8c8f9aU, 0x9194939b92929b96U, 0x909b978c8d98938cU,
  0x939297999490938dU, 0x8f8b9496948d949bU, 0x918d8f8c91908f8dU, 0x9a919b9390989292U,
  0x93948c9999929093U, 0x9691909895918d8cU, 0x99938f8e9b938d97U, 0x93918d9a8c9a8f90U,
  0x9a948c8e8d93948cU, 0x91938d9996918d99U, 0x998b8e918d8c9495U, 0x8f969a8b968f9095U,
  0x8e9a9796948f908bU, 0x97938c99918f9199U, 0x8b918c8e9a909692U, 0x8c928e9a978b9298U,
  0x9a948d989796928bU, 0x90928f8f8c9a9899U, 0x8b9991918d8b9591U, 0x918d938d9790938bU,
  0x8b9a99908c94968cU, 0x908e93968c9a8d95U, 0x9a8f9a92938e9391U, 0x93939093929b9195U,
  0x9590928c93909694U, 0x8d9392998c8e9995U, 0x8e9a999793929699U, 0x93988b8d94989191U,
  0x968e8d97918c9494U, 0x8f9999968f929b9aU, 0x9193969698929699U, 0x8d918d8f98929791U,
  0x948f8c8f8b989797U, 0x928e8d928d8f958bU, 0x968a8e8e8f919196U, 0x96999993938f8d98U,
  0x949a9398948e9793U, 0x9498908d8e928f99U, 0x9193909a98949796U, 0x90918f9392928f91U,
  0x9697918f8b8b9999U, 0x9294918f908f958fU, 0x948f969394919a93U, 0x98908f919a918a9bU,
  0x979a938c978a8d90U, 0x969896978f92918cU, 0x9397958c90978b93U, 0x948c958e97968e92U,
  0x958b8f96978e9495U, 0x9b8f9a8d8d8e928cU, 0x96978c9396908c8fU, 0x8e8c8b8e9594919bU,
  0x90908c958d989194U, 0x9495968b93928d8cU, 0x969a909698989a8fU, 0x94958b9a8d97978eU,
  0x90988f8b97959a8eU, 0x8e95998d8c988e99U, 0x8e8d97978e999193U, 0x99938c988d8b9299U,
  0x998f9095978e9897U, 0x928b9193988c9993U, 0x8d968e9995989191U, 0x949a998f908d8b91U,
  0x8e9494979892909aU, 0x8b929595908a8b96U, 0x958d8d968f979b96U, 0x959a918b8c8e928fU,
  0x8d938d9696988f96U, 0x928b97959a94999aU, 0x8b97928a91939797U, 0x9694948e8d909395U,
  0x97938e97908f929aU, 0x97968c9797979293U, 0x909299929994918dU, 0x908b8b8f98929595U,
  0x939a8a8f96918f97U, 0x8d9791938e9a9691U, 0x99918d8f968e8f98U, 0x959a9891918c9a93U,
  0x968993898a908d95U, 0x9b8e8d95978f8d99U, 0x908e8c96928c8f92U, 0x928c918e94938d92U,
  0x8b9891928c91998dU, 0x92939491968c8f93U, 0x9897939888929495U, 0x8e919a8b8e8d9c92U,
  0x8e968b908d909294U, 0x988b8b9b899a908dU, 0x94958f9394979595U, 0x958f968c9092988bU,
  0x938d95979494919cU, 0x9992989594939491U, 0x8b8f969699939a96U, 0x99979096948f9790U,
  0x9797938996908d94U, 0x9b8d8d939c92948eU, 0x978f909b9098968cU, 0x9b8e99999796928cU,
  0x919494898f949593U, 0x938e8d8f8d93999aU, 0x99958d909b929399U, 0x9792908c948e9895U,
  0x959298918e908f91U, 0x9494978d8d989497U, 0x8e9a9b8e95919690U, 0x9a8f9192918c9497U,
  0x9c93938e9c908f91U, 0x8e959b96978d8d96U, 0x9291939390959295U, 0x94978e978f98989aU,
  0x8b91919291938c8dU, 0x9a909a908e8e9997U, 0x8e8f8b9899949791U, 0x9d938c9493929692U,
  0x8b8d919195989b91U, 0x99989c9a95908e8aU, 0x939c968f8e8c8e96U, 0x9c8f949293919494U,
  0x9c8b93909b948c8fU, 0x8f9696979a898d92U, 0x908d8f8f8e969596U, 0x9b8e9799988d9c8eU,
  0x969a949298888d8aU, 0x9a8e988f8c8e908dU, 0x8b96949497958890U, 0x8e978c958b8c8f92U,
  0x978a98908a909b94U, 0x959890959395938bU, 0x8e8c928b8e8d968aU, 0x94968f918f8f9693U,
  0x8a9598888d90938eU, 0x93928d9190958f9aU, 0x9098968d91938d98U, 0x968b968b8e969799U,
  0x948f909593898b94U, 0x9794909892949392U, 0x978b918e938d998cU, 0x988f918f918f928dU,
  0x99928d8b8e94958bU, 0x95958e8f8d92918fU, 0x919099968a928d94U, 0x948988978f969895U,
  0x8f9197978d99958dU, 0x8d8d9597938d8f88U, 0x909298958b94928cU, 0x8f928c92878d948fU,
  0x95898e8e8f938f93U, 0x8f8f9590948c9690U, 0x9095968b9c8e8d9aU, 0x9289929298939490U,
  0x9a9090929095908cU, 0x9293908e92928992U, 0x8d8e918f8b8a8b8fU, 0x909788979a8c8c97U,
  0x999895928f8e948eU, 0x95969c93978e9793U, 0x9195908d948b8a98U, 0x8f8f899993978c97U,
  0x9591909a8b888f8dU, 0x969696908f8d9898U, 0x8e8d9291928e939bU, 0x93968e8b958e9392U,
  0x978b94898e8d938eU, 0x98938e938f8f9b93U, 0x8f908c90889a948fU, 0x948d939a91909a90U,
  0x91958b939797989aU, 0x918b899d958c909bU, 0x8e928d908f959897U, 0x958c969b9397958bU,
  0x91948c9393989096U, 0x9791948d958f938fU, 0x9093998e9494918fU, 0x969c8e8c96969693U,
  0x9a919590908a928dU, 0x9f97979593929197U, 0x939b8c8f97959197U, 0x978f978f8b8d8c99U,
  0x9098998a91958d9aU, 0x959895918b958c94U, 0x90969b8b96989b93U, 0x9299929490889395U,
  0x9496999990918a94U, 0x9b8b9088919a958eU, 0x8e96928e8a93958bU, 0x8d929b9a9a978e98U,
  0x909c90898f908f90U, 0x978f9b9190948a98U, 0x969693989290998dU, 0x908f97918b8e9896U,
  0x918898958d908f92U, 0x9a92918b8c8e9798U, 0x8c9b899996949094U, 0x939893949a91918eU,
  0x8b9390978c8a9690U, 0x938f8d918b909497U, 0x8e93939b93959495U, 0x8e958d948c8d9993U,
  0x9d918e9290958d92U, 0x92968b908c8e9a97U, 0x908c9d8c99909396U, 0x9b999a94939a8d97U,
  0x949397968f929a96U, 0x958a9c908d8d8a95U, 0x96939892958f9890U, 0x91969b9992948990U,
  0x9398958b8c988e92U, 0x9095929a99929696U, 0x8e9697968c8d9196U, 0x99909397928d968dU,
  0x9895969390909594U, 0x9690909a96979197U, 0x9097938f9c949097U, 0x8b958f98969a938eU,
  0x8d959697978d9595U, 0x948889959397898eU, 0x9091939c948b9790U, 0x99928f939791958bU,
  0x988e898e95909697U, 0x9997998d9898918cU, 0x929193948d96988fU, 0x8c9a8a8b9a919796U,
  0x958d959b8e95908dU, 0x96918c9197929792U, 0x93918b92948e9091U, 0x9795909089998a8fU,
  0x9695989c8e999396U, 0x898d929489929593U, 0x928c908f958b9296U, 0x958b9996969b8c93U,
  0x8f8e968c8e998d90U, 0x9d8f978d9a939193U, 0x91978d9293909590U, 0x91898a988f958e91U,
  0x968f8f979b999191U, 0x978e9b9795929891U, 0x909d8a8c9c8c9899U, 0x998d978e9d94968cU,
  0x9b998e9b9094978cU, 0x948f9891938f9492U, 0x9298909b90978e90U, 0x9f9092958f93958bU,
  0x9593998f93989c8fU, 0x99939c988d9a919aU, 0x9c9c9497958f9292U, 0x8c90919b99909b8cU,
  0x9a8f909a978e8e92U, 0x96948a8f8d918a93U, 0x9498938d98959690U, 0x98968f959c949c8bU,
  0x929493949692968fU, 0x948d9b8d9c948f96U, 0x998e919597988f98U, 0x9194979996939794U,
  0x929293939a9b9094U, 0x959a969a9a928e8fU, 0x8e949b8e8e908f92U, 0x988b92949692948cU,
  0x90958f8f96929094U, 0x9090919c8d90939aU, 0x9a95908d93968d9bU, 0x9994948c9c9b9b8eU,
  0x909992979a918d99U, 0x9099929c998d958cU, 0x9792909b9b9b9091U, 0x9b8e96999290938eU,
  0x97919395988d9b9aU, 0x929292959d9a9993U, 0x939a918e94919695U, 0x9b9b909a929a959cU,
  0x909892909298998cU, 0x8e8d8d989b998b99U, 0x959993988b939291U, 0x9b8a979596979997U,
  0x9592909a96929395U, 0x979e99929a959793U, 0x9798958e998d8e94U, 0x8f90989999959b97U,
  0x9490989c918b9799U, 0x958b98948b908b90U, 0x8e989890998d938fU, 0x9c918c95919b9293U,
  0x9a92939096939099U, 0x9692958e92929392U, 0x8f919b958e909496U, 0x8b96968d8f89969bU,
  0x948f8c9292938f93U, 0x8b8b8f8e8d8b9694U, 0x938b968d898d9390U, 0x97958e97918f968bU,
  0x96949689958a9897U, 0x96998e8a8e978b97U, 0x8793949492979498U, 0x8b9892878e929894U,
  0x8b919c8e918a8d90U, 0x948a918d90959090U, 0x8991968b8b8a8998U, 0x998a959695988f90U,
  0x8e95919896899290U, 0x95888e9392979992U, 0x9094988f97969a8dU, 0x938c9795908d8a91U,
  0x98948e9699949298U, 0x94939397969c9293U, 0x8d969292998d8f99U, 0x979696918b8c8e95U,
  0x898f988b8a8b9491U, 0x9090939597919a99U, 0x8f948d908f988f95U, 0x988f989791899192U,
  0x8f918e8c928f988cU, 0x928b8b9196939291U, 0x9092949a948f9397U, 0x9a8a8b9791929794U,
  0x90918d9699939392U, 0x9995969488959996U, 0x918e8a9998999391U, 0x9a8c8e928d93948eU,
  0x96909495958b9091U, 0x8f9199989a92928cU, 0x8c8e958e91998f92U, 0x8c968f98968c9a8fU,
  0x8d8e8f958c998a92U, 0x898e8f8b9a959297U, 0x979899968f948d99U, 0x90978c8e968a9990U,
  0x8d92959499969098U, 0x8f949a97968b8d94U, 0x918f9289948f9097U, 0x918f8d978d92908fU,
  0x919b978e94889b9aU, 0x9c9899999c94908fU, 0x988c8d9499928e96U, 0x9295949a998b9791U,
  0x9397989a8f8b9799U, 0x968a968f97969796U, 0x968e8e8f9593998dU, 0x8d949099928c9c9aU,
  0x959394928d9d8e90U, 0x9396909d8d9c9491U, 0x9390908e99938992U, 0x9091929c919d8a8fU,
  0x9a8f939b928f8c9cU, 0x9197978f92949b92U, 0x91909597988f9898U, 0x8d99929992969795U,
  0x908e8a9c8d98989dU, 0x94929a9a9b919691U, 0x929192959b8d9298U, 0x8e8e938e9995938cU,
  0x9193959892919091U, 0x98918b92959c9a9aU, 0x99958c9a9490988dU, 0x9890938a9a929198U,
  0x919a94999b918d94U, 0x929492908a999991U, 0x998b909a93999295U, 0x939a9095909c8b91U,
  0x8d9493959a999897U, 0x928c8d938f8c978cU, 0x978f8f9a98998b99U, 0x949a999b9d988f98U,
  0x96918b9495928d95U, 0x9a92988a93939a9aU, 0x99918f9494938b8fU, 0x9493949893968d8eU,
  0x8f908f97959b9697U, 0x929392978e939691U, 0x969997919096938fU, 0x9591918a9b959396U,
  0x8e918f9295908d8bU, 0x948c92958e998e94U, 0x8a8e9a928e969396U, 0x938e96919197908bU,
  0x938a8c95968f9c9bU, 0x8d8d92908b8f8c97U, 0x9697969c8e90939aU, 0x9b95919290908f94U,
  0x899498978f96908aU, 0x8f92959d94939791U, 0x96928d90948b9688U, 0x9490948c989a8f98U,
  0x999a9b8f90988c93U, 0x91948b979a948c94U, 0x8d918f918a948e96U, 0x96908b91958f9192U,
  0x8f8e8d95958d8a87U, 0x8f948687968d8e95U, 0x8b8e939597999096U, 0x968c94898b969595U,
  0x9b9294919390928cU, 0x9a978d9b90909397U, 0x97919a989a97948eU, 0x8f918f9498978888U,
  0x958c8d929b8a908fU, 0x8d8c968d8e8d8d92U, 0x968e8d8f96999590U, 0x8e8b959b93938a92U,
  0x9594918c9a948d8eU, 0x8f90999a9a949b93U, 0x9393949a96958f92U, 0x978b8f9c929c958fU,
  0x979695979092928fU, 0x8f8f92998e889a90U, 0x959b9a92918b918bU, 0x8f8a929193939096U,
  0x8f9690968d909699U, 0x9190969e8d959795U, 0x9393988d939d8b9aU, 0x968f8a9991879489U,
  0x959c94929b8c9396U, 0x909597898f919695U, 0x9397918e908c9398U, 0x9c968e8b95928f96U,
  0x9d988f9497908e8bU, 0x949b97939d8e8f8cU, 0x92978a899a919494U, 0x90959a9b9a978a97U,
  0x94978c9893938f92U, 0x8a90958f99929696U, 0x8f92918e9290939cU, 0x8a99948f939b8c91U,
  0x97958c9997979997U, 0x9b8a959a8c8f988aU, 0x8b97938b8f8f9891U, 0x978f8e8d8a94968fU,
  0x8d9d8c9598919193U, 0x908b8e98958c998dU, 0x8c98909a99978992U, 0x999d939091979694U,
  0x928b8e938f979898U, 0x919b96969491998cU, 0x9b8f88908f90988cU, 0x8f9392929398998dU,
  0x8e8d91948e93948fU, 0x918e979991909297U, 0x8f92979a9c968e9cU, 0x8d8d8e939793989bU,
  0x908e93908d978c99U, 0x8d93949d93989299U, 0x959b90909b8d9498U, 0x93998e9b919a948cU,
  0x9b9b91998f8b9b96U, 0x9399939390989694U, 0x94989293918f9d90U, 0x98959191948c8995U,
  0x9993988a93979291U, 0x9896948d908f9892U, 0x9691949e9a939296U, 0x9b8b949393949690U,
  0x959a8f9296928f8dU, 0x9295949a96989094U, 0x8f949c939a999497U, 0x9196948d929b9892U,
  0x9793968e8e93988cU, 0x9b8a89938d948b98U, 0x8c929891918b958eU, 0x968e8f91968e9691U,
  0x98998c8c8e8e9191U, 0x948b9292938b958cU, 0x908c93959b9b9693U, 0x8d93938b97948e91U,
  0x8e8c9295919b8c92U, 0x96948c8f9a91968fU, 0x8b8994938e8d8995U, 0x91908c9896928c8eU,
  0x8f998d8c94949b94U, 0x918f958d8b979694U, 0x8a998c9d95998f96U, 0x958e99919493968fU,
  0x90978e96948e9395U, 0x97909492978d8f90U, 0x9090979291928d94U, 0x929097968c8e8d89U,
  0x989c8b8a938c928dU, 0x8a909a8e98968c8bU, 0x93939496929b8e8cU, 0x928e938c9b8b9392U,
  0x8e89948e8a8c9591U, 0x909690909a91928bU, 0x939091898b919196U, 0x859a939694989a98U,
  0x8e8b8b928f8f969bU, 0x948a8d928c969698U, 0x8b929391918d928fU, 0x918b918a948b9796U,
  0x9095939a9198929bU, 0x8f928c9491888f95U, 0x928e8e96908f908aU, 0x8d9a8e928c939697U,
  0x9c94918d97959094U, 0x909599908d948e98U, 0x8c919398969a8f8dU, 0x91968e9a8f939a90U,
  0x958c9a9b8e919a95U, 0x8a95928d9b908e96U, 0x8f9b9a9c91939493U, 0x9996939099909196U,
  0x8e9494889295909aU, 0x90909b928d979299U, 0x958f919490958d9bU, 0x988d929596989493U,
  0x9b9693939699948dU, 0x8d8a97979191988eU, 0x928f949c8e919490U, 0x9a938c8d8e939a9bU,
  0x998c939696978f8eU, 0x9395928990948c9bU, 0x928e8e959b8d8a90U, 0x938f8c9899968f97U,
  0x928b8f8a999d9a98U, 0x8b908c90978d968bU, 0x9495938f9494988bU, 0x8f9191939395908fU,
  0x988f958c90978e93U, 0x9491918e90939696U, 0x90949a92988e9894U, 0x8f9898968c988e90U,
  0x8f929594978c9893U, 0x9c9897978a919293U, 0x968d909b9b939994U, 0x9790969791989c8dU,
  0x938f8b9b9c8f9499U, 0x93959096958c9292U, 0x8e948c98968b9591U, 0x9599939897929492U,
  0x8e8f998f958f9798U, 0x908f9097968e9895U, 0x8c99908990948d9aU, 0x978e97938e948e92U,
  0x8a938f979493978cU, 0x919b8f8a92998f8cU, 0x8f8c99958c8f959bU, 0x99918d909595929bU,
  0x90969990909a9192U, 0x969994938f93948eU, 0x8b988e909a8c939bU, 0x978f959a96908e8cU,
  0x9592999895959393U, 0x8e939d9d8c919190U, 0x8f8e97959b99988cU, 0x998e958d9c939993U,
  0x92979391939d9198U, 0x8d8d92919194938eU, 0x8b988d978e999799U, 0x91968e918f949595U,
  0x8d9295998c909196U, 0x8d9497918c929a98U, 0x958e8f9692919999U, 0x9b8e9b9198939c90U,
  0x90968b909a948e92U, 0x98999193958a918eU, 0x9599959697908d92U, 0x948b91939690978dU,
  0x9490938c94989492U, 0x9790939696988f99U, 0x9196929a99918c93U, 0x8d908c97959e9197U,
  0x8f9290948d929197U, 0x8e95948c979a8f96U, 0x89908d8e909a9197U, 0x8f959c9497919194U,
  0x9398948f948d9096U, 0x8f94929298949191U, 0x98929092928e8c93U, 0x8d9b9192929a9c8dU,
  0x9c928f9994908f97U, 0x8f8f98919190998fU, 0x96928e919c91909dU, 0x9593999d928f9096U,
  0x988e8e898f958e8eU, 0x908f9a99958f8c8cU, 0x96998f8d94918f93U, 0x958e9a948f958b8aU,
  0x9b948f9891918b90U, 0x9290989a9c94968eU, 0x929692959a938c8dU, 0x988b96969b91908cU,
  0x9a958f9c8e989592U, 0x92998b9792919d90U, 0x90958c8d9a9c929cU, 0x93979092998f939cU,
  0x8f8b959c96909d99U, 0x93979293968e9890U, 0x9890999a9a94939bU, 0x958f98999198938dU,
  0x928f91919b8e9299U, 0x9a8f9c948f8c9a91U, 0x998b9b8d99999797U, 0x9196939396939993U,
  0x8d92968c8e92928fU, 0x959791989891998aU, 0x918f97908e8d948cU, 0x90949296938f968dU,
  0x95979d9b8f9c979bU, 0x9b9d939396919394U, 0x8f9a93939a9a9490U, 0x8f9397988e96979bU,
  0x998f8e8d909a9898U, 0x8f938f978f938f99U, 0x92928e9491988f93U, 0x94918a968e918f94U,
  0x9296939290999a8eU, 0x908b9d8b8e939192U, 0x978f96999c97988bU, 0x9490979697948d8bU,
  0x948f918f98978f90U, 0x98958f989b918e96U, 0x959792959a8d9297U, 0x8e8f8c969b9b9388U,
  0x9199958f99908d98U, 0x9690998d8a8e938cU, 0x9590949693909190U, 0x8c998e988b908c8fU,
  0x9a948d8d97999298U, 0x8f8c899597919492U, 0x8f9391959797938eU, 0x919694938c8d9391U,
  0x8c9c95908c919598U, 0x91938d958f90938dU, 0x968b8e9093919794U, 0x9a91919794919598U,
  0x928e95918a908b8aU, 0x958b90999a8d9995U, 0x8b928a9b8f8e908eU, 0x978c8e959096908eU,
  0x8e928d938f969796U, 0x989894998c959491U, 0x978c9090959c8b8fU, 0x94948c8e94979b95U,
  0x96899a8e9a928c94U, 0x9495918f958f9594U, 0x929492909c969396U, 0x958e959398919c96U,
  0x9b9b978b938e8f8eU, 0x9c938e99908b9198U, 0x8d999796928f8c92U, 0x95978d919691988dU,
  0x89949b918d9a8f8cU, 0x95978b958e968f8bU, 0x8b8c8a8b93959798U, 0x9793939a969c9c8fU,
  0x909b98969495938fU, 0x9495948f8a998f91U, 0x8a94968c8c8d9391U, 0x8a899a9a89968f91U,
  0x8c8c8e9999959891U, 0x919192998b969590U, 0x908b988f91939190U, 0x98968c928b918b95U,
  0x8e98918a988f9198U, 0x979398909c8b8b92U, 0x8b8f8c9393918c92U, 0x8d968f938f8c8b96U,
  0x8f979b92888e8c94U, 0x8b9a91979b94968fU, 0x8f959392908e8f8fU, 0x8f99938d9697938bU,
  0x9a8f928d8f9a9792U, 0x9091958c8a8f9492U, 0x92928d8d8a949491U, 0x968892938c8c9095U,
  0x938b8d908c949988U, 0x8f93929995908f92U, 0x8c948d9995909594U, 0x9994899188899594U,
  0x969393979a939099U, 0x949392909a8b9897U, 0x989c9594968d8f90U, 0x96958d8e90959890U,
  0x9a9495888e959091U, 0x8e98909394958d8fU, 0x8c978d8c92979490U, 0x929589929c8d9a8eU,
  0x958e95938f93918eU, 0x988f959799928d94U, 0x95949a959094939aU, 0x97939b8e93958e90U,
  0x93978f918e958f8eU, 0x918d8c95888c8f9aU, 0x9a9991988e8a9891U, 0x8d8d928e908f908bU,
  0x9092928c90919397U, 0x90949897938f9790U, 0x958f8a948f8d9197U, 0x979c91908c95938cU,
  0x8e8d8b94958e9593U, 0x9a949193969a928fU, 0x949b958d8b909592U, 0x9a91938f95919a91U,
  0x8b8f9498938e8d91U, 0x90959a8c968b8c98U, 0x8d929197958f908dU, 0x98938b8f948b8f8bU,
  0x9e918f8f9a918d91U, 0x978b8f8f8c8f978eU, 0x978a9792938c8a95U, 0x998b928f97959591U,
  0x8c9b96968a8e9186U, 0x91928e9789949590U, 0x98888e98928f9096U, 0x93908b9195918f95U,
  0x9a8f9a8f9c92959aU, 0x8c918e918f8f9892U, 0x8b8d8b9195968e8cU, 0x9895909089929a92U,
  0x8a8e948b93968a8bU, 0x988d8b8f96919499U, 0x8e8f8f9694919599U, 0x9c8f928f93899b98U,
  0x94949a948f938e91U, 0x9595919b908d929aU, 0x8f96918f978d9093U, 0x93898b9b96979290U,
  0x9799959297969a9cU, 0x9299959b92959794U, 0x9198929691939090U, 0x9396929b8b9a978eU,
  0x989a94958a938c99U, 0x8a939498979b9794U, 0x97918c8e958f9b96U, 0x8e999a909891948dU,
  0x8e9c919a92989490U, 0x94949793928f8d9aU, 0x9199979d91979091U, 0x92988d968d929a92U,
  0x9a94928e98909895U, 0x9793949a988a9298U, 0x8a93989d92948d92U, 0x938c8d9296908d91U,
  0x9490979198918e96U, 0x8b97948b95959690U, 0x919b958e97969793U, 0x968e8d8f90918b95U,
  0x8c9898928d8d9293U, 0x9b8d9098959d8d91U, 0x8e948e939197958cU, 0x9b9a959390929196U,
  0x968d9091989b9c96U, 0x928d969892949c91U, 0x978d9c9b95959197U, 0x9399978d8b8f988cU,
  0x9595919598999d95U, 0x8f96949891919195U, 0x9296939a94919191U, 0x95919693978d9596U,
  0x888d97968d8d9095U, 0x8f909994918a9798U, 0x998e999396969596U, 0x93999998938c9490U,
  0x958f8d999a8f8f96U, 0x9b9a95939a93948bU, 0x8c9396958f8c9095U, 0x9490969896939890U,
  0x918f96909698918eU, 0x92969093938e888cU, 0x8b8c938d9993918eU, 0x91909a988e92959bU,
  0x958b9099968c9490U, 0x919298978c97908bU, 0x978d9a9589939391U, 0x9187978d9799948aU,
  0x91958a919689939dU, 0x9a979a8a9690988cU, 0x939b92949e938f8dU, 0x9498929089919296U,
  0x948e9493918e9390U, 0x9b9395929d9c918dU, 0x91918b8a8b959797U, 0x95908f918e929693U,
  0x8c8f94949292938eU, 0x8e949a908a939098U, 0x97949d8d93999490U, 0x9395969a959b9791U,
  0x91958d90968b9b9bU, 0x939392958b8f938bU, 0x908d918f93918e9aU, 0x8e8c8a9592918e8dU,
  0x999c8f9092909687U, 0x978f8f958f939492U, 0x95948d9694938f96U, 0x888b99958c8d928eU,
  0x929690939996958cU, 0x8b8b919998919b90U, 0x8b979492979c8990U, 0x8f9b929092919799U,
  0x9a998b9b97979095U, 0x91959c8f9290898fU, 0x979a93958f929b9cU, 0x8f92929289979896U,
  0x95909895989c9591U, 0x968f9b97938e8e93U, 0x8e8d968e9297948cU, 0x909498968e8b8e95U,
  0x8a97929692969989U, 0x9b979590928b9b88U, 0x95918e9191929b99U, 0x90929a97988d8d8fU,
  0x9399959295978894U, 0x958f9197908a9591U, 0x918892999393998fU, 0x908d99909694948eU,
  0x95918f978c968a92U, 0x9292909590938a99U, 0x8d908b898c928e94U, 0x969795948f8d8e8dU,
  0x879690909589929aU, 0x949695919b979a8bU, 0x9a98959594998b8eU, 0x9993928f91918d93U,
  0x919592979499958cU, 0x9b97968f8e999996U, 0x989a8f93999a9799U, 0x8ea39a958f96938fU,
  0x8d8a8d8b8d909699U, 0x93918b969c8e9290U, 0x919b8c8d8d9a909aU, 0x9097958e8e8c9597U,
  0x958d899999938f90U, 0x89919296998b978fU, 0x918a8c9195928b8eU, 0x9a989a8f94958c96U,
  0x8c919792968c8c96U, 0x8e90989891999492U, 0x8d958f8f92988b99U, 0x96908d9691958c92U,
  0x9197979c929c9590U, 0x96919392928d9790U, 0x918d8e9a979a9296U, 0x9293938c968a9099U,
  0x92918b9391958893U, 0x958a8e909a899a90U, 0x8b96969891969494U, 0x9394949793928f94U,
  0x968b928a8e979c89U, 0x8992989c97898d94U, 0x99948d8e8b98929aU, 0x9292999e898a9799U,
  0x9d9896979799948fU, 0x91928e968f929597U, 0x8a90999b8a988f92U, 0x999692958e8e908fU,
  0x8891918a8e939b92U, 0x988d8d909b87968bU, 0x93989692908c8e9aU, 0x8a919096968b9091U,
  0x8f9094929794958bU, 0x8c8a9a8f90948b90U, 0x96888d9492989495U, 0x939499958d939096U,
  0x8c8d8f9397988d91U, 0x8f908e94958e9a98U, 0x9299938d8d98958fU, 0x8c8d8d939c939790U,
  0x8a988c8d938e928eU, 0x8e9696978e938e8cU, 0x978c9592988f9696U, 0x978e9a8f8f998d96U,
  0x86929998909a928aU, 0x9698958d96909495U, 0x92979b8a8a909898U, 0x8f90999599938d99U,
  0x9296938b99998b98U, 0x95908c9192908f8cU, 0x959a9a908c8a988fU, 0x928e9a928f90938fU,
  0x9092869095999790U, 0x898f89909a93908fU, 0x8b948f8d8f8f978bU, 0x9096928f8f8d9596U,
  0x8794918c8d95948cU, 0x8c9090928e8e9692U, 0x92989697958a9295U, 0x958b8c8f988d9495U,
  0x8e8d97908f968e97U, 0x938d929696989a8eU, 0x969598918e959895U, 0x8a97918d96989897U,
  0x969199928d948f96U, 0x939293969b928c90U, 0x9d90939093928b99U, 0x9c919596958f9394U,
  0x968c92958f958d92U, 0x8d8f95949595968fU, 0x91929d8c988d9691U, 0x8d978d91958b9693U,
  0x978f8e968d948e98U, 0x989a8d8f9198998eU, 0x958d91968d909595U, 0x93928f9c95999694U,
  0x999b98979b8c9895U, 0x9491909399968d99U, 0x9798958d9a8c908bU, 0x92a39a999099908eU,
  0x91918d95a096949bU, 0x978b908f97998f94U, 0x929c9692929b8b91U, 0x978b929195978d91U,
  0x8d91919d8e92978fU, 0x9893958f8b978d97U, 0x8d92939399969394U, 0x958f908c9291948eU,
  0x96918d9798949692U, 0x9c978e8d93999299U, 0x9297929b8d949a8eU, 0x8f97978f8a90948cU,
  0x9b968d9594949593U, 0x8b958b93948a9093U, 0x968c9a958d959599U, 0x908f8b8b9292978eU,
  0x9a92938d9297998eU, 0x8d958e8d8f939187U, 0x918c9290958d9292U, 0x948f96919992988eU,
  0x8f8f918e98929594U, 0x8b959b91968c9093U, 0x8a92929191978f94U, 0x9298978f8889968aU,
  0x8d988e968d898b91U, 0x9792939194978f8fU, 0x95938f8c8f8a958bU, 0x8c8e8d948e958791U,
  0x96909a8f90979a92U, 0x8b90988d92938b8dU, 0x8e9b999491958a95U, 0x94959097988f9197U,
  0x958d8b9699959799U, 0x9490969096989993U, 0x938c988990918b92U, 0x929a919290929297U,
  0x8e98869c908d8c96U, 0x9c8e96978c949396U, 0x958c9b999a979a8bU, 0x8c8c968f93989495U,
  0x91928a92958f928dU, 0x8c8f99978b989591U, 0x988e969a8b909a92U, 0x948c929a94929992U,
  0x938d90999a9c8f93U, 0x8b8e968d8d919794U, 0x9594939089908c99U, 0x939a8e948b94998eU,
  0x969990919495968cU, 0x999093918c93948bU, 0xa09a9794978c8c92U, 0x898e939295909697U,
  0x8d9a888c93979699U, 0x9a8e96948b8b908fU, 0x8d908e9990968d97U, 0x94948e908a948c97U,
  0x8b8c8e8c969c8894U, 0x9090979691978a95U, 0x8c8f9c8b8e8c958eU, 0x8e8c99908e8e9491U,
  0x8f8e949a969b998eU, 0x999994949c949494U, 0x8b8d9a9090919c95U, 0x939a98918c948d91U,
  0x8f9c9092978d8c8eU, 0x928e989c93998d89U, 0x89978e8b9291908eU, 0x918e92938d96968eU,
  0x9398939c948f918fU, 0x969493919a979593U, 0x9b94948d93909c98U, 0x968d99969395978fU,
  0x9a90989c96998f98U, 0x979d9197948d9190U, 0x9790909a93908d8fU, 0x9b919699908f8f91U,
  0x8e8d979599928f8dU, 0x8e9596949294948cU, 0x9290909698949499U, 0x918b978c92968f93U,
  0x9098988f96998a8eU, 0x8c958e918e999492U, 0x989e8f8b97909494U, 0x959a9490948d9594U,
  0x919988968c988d98U, 0x978e969291919291U, 0x9492909695928f9aU, 0x8b8f919893959893U,
  0x8c94969493928b9bU, 0x9a97978d96968d96U, 0x93968f8d9b959595U, 0x96928f8e8e8c9190U,
  0x968f8b8a8b959095U, 0x9695918d928c968dU, 0x8d8c8b938e949292U, 0x938794969895988aU,
  0x918d8b979c8c8b97U, 0x92968a8e96959187U, 0x8f90969797968c93U, 0x8e9b8d90938a8c94U,
  0x8b9894939393968fU, 0x948c888e97969591U, 0x8d8d8999978c8e91U, 0x93989190918a8c89U,
  0x918c8a8b8c898f90U, 0x968f8b8a88949693U, 0x8e92949a97899997U, 0x968f928f958c958fU,
  0x8c96938d99978d87U, 0x949892998a8c8b87U, 0x9493948e8f969297U, 0x8e908b978f89949aU,
  0x9491958d8b8a928bU, 0x908f97978a95958dU, 0x8a918f90978e8f8cU, 0x9195958b8d8d9291U,
  0x919a8d958f97988dU, 0x8e9198978f8e9595U, 0x8c92938f8c8a9497U, 0x97988f9894999698U,
  0x90918b9393938f8dU, 0x9594948f9195928eU, 0x8c8d91978f909795U, 0x94968f9589938f90U,
  0x95969896988c8896U, 0x96928c9299968d97U, 0x96948d958f969297U, 0x8f8f958a949a9499U,
  0x9294989091989793U, 0x8d9692918b93938fU, 0x928e8c92928e958dU, 0x959993908d939499U,
  0x95978d9298948d91U, 0x919195878d8e8e8eU, 0x8a909b949294999bU, 0x9890918a8a898f91U,
  0x8e928b929b8f8e8bU, 0x8d96968d8d8d9296U, 0x8f8c939796959289U, 0x998f909094959394U,
  0x938e9a9890909997U, 0x948f9797918d9496U, 0x9894998f948c9b8cU, 0x8e96938f96988b8bU,
  0x8c8f9590979a8d98U, 0x8d8d8c9294968d96U, 0x989d908c9a92989bU, 0x998f929699909190U,
  0x8c8d9890989a8b8dU, 0x8f9798918d98969aU, 0x9694978b938c9897U, 0x97988d9798909296U,
  0x9194968f9598989eU, 0x98948f9a9698999bU, 0x938c9b8c988d8c9cU, 0x958e94928a959a97U,
  0x8d93998e998c8c90U, 0x9791958d8e8c8b90U, 0x9691959995919292U, 0x92989d98938a9a90U,
  0x8d978f909d8f908dU, 0x8c928f9490929693U, 0x94909994928d9295U, 0x8d9799988e97958cU,
  0x8b8b8c969394948fU, 0x89928d968d908a93U, 0x8b908c938a8e9492U, 0x998d948e9098918eU,
  0x9495989192939292U, 0x9b9a968d8b8e8b95U, 0x91959294998a8c98U, 0x91938d9b8b989490U,
  0x8a929a9390958b88U, 0x99898f99958c9694U, 0x8a8d8e93988d8d98U, 0x8d93908b9491988eU,
  0x8f96938b908f9190U, 0x94958b909896908eU, 0x8d969090979b968dU, 0x959094978d98908eU,
  0x98978d998d908c89U, 0x8e898d8d8c998f8bU, 0x988a89958c988d98U, 0x8f968d9592949697U,
  0x878d8c8e968d9089U, 0x9194969898908d8fU, 0x9099919a8e8b8a89U, 0x9a938c968d93918aU,
  0x8d978f9898899698U, 0x8f8f8f989c8c8a8cU, 0x979894919698978cU, 0x918c90979b8e908fU,
  0x8b9999898f99888dU, 0x958c988a8c8f8b91U, 0x9088958893978d90U, 0x9694999491968d92U,
  0x96928e8f8d8e8a92U, 0x8a94948d90929493U, 0x888b938b8c948a9bU, 0x988c999b979a938bU,
  0x8a8d89999a979395U, 0x92979a93959a8b91U, 0x91958f969391909aU, 0x8e8e8c908b979299U,
  0x89988f938c909488U, 0x968e9995908f8d96U, 0x8b8b8b8f9891978dU, 0x8e948e979895958cU,
  0x9997918d928d8899U, 0x8f8d948c958d9298U, 0x919b989393998a8cU, 0x8992919597938d95U,
  0x8d968a8c90889591U, 0x8a91988d92958d94U, 0x888b929c9099959aU, 0x9094929389928c96U,
  0x918f94958e958b87U, 0x998e98928e91968eU, 0x969a9597988e9596U, 0x969195938995858eU,
  0x948c9791988e9196U, 0x9490919993929097U, 0x94909a8d908d9b8fU, 0x9094918c8f898c98U,
  0x9a8d948f978e9294U, 0x938e96918e93938dU, 0x9589999995908d96U, 0x989b8e8e918d9291U,
  0x9490919699999492U, 0x908d9492968f8c95U, 0x9b9198948e8f959cU, 0x928c8f9891959894U,
  0x8999909599988d9aU, 0x9296998f90978c8cU, 0x92988f9a8e8e988fU, 0x8d90979a93909595U,
  0x958d8d939790998eU, 0x93928e949a95948dU, 0x979c9a8e90929196U, 0x8f8a8b988d929b99U,
  0x9793969599999097U, 0x9690999b9a93929cU, 0x969692988e8b9998U, 0x968c968d8d989496U,
  0x998f9a9d9a998e93U, 0x918d939e949e938cU, 0x9591918f9a9a968cU, 0x9a9a8c969492998fU,
  0x8e91919993978c9dU, 0x9696999193988d90U, 0x959393909a909393U, 0x998d948e979a9794U,
  0x889a9a8f8d8e9a96U, 0x91948b978d8b9896U, 0x98998c8e9997929aU, 0x92969396938b8c9aU,
  0x9394998f989b909aU, 0x98908f96919a908bU, 0x8a908e978c97908cU, 0x8f8d90968f919994U,
  0x948e959c8f979292U, 0x8b898f9191959096U, 0x9e948b909a9b9097U, 0x8d929a9d9697978fU,
  0x9997929590939692U, 0x93968e99998c8f91U, 0x9590939895909289U, 0x948c98968e94938fU,
  0x9493908e8d908f89U, 0x8d9495929593988bU, 0x9d8d9992918c9097U, 0x92958b9699938f95U,
  0x8b99979393918f96U, 0x8f98969191938d8bU, 0x9a8a8e8f8e8c8d96U, 0x8e8e91999994918dU,
  0x92948c98918b9094U, 0x8e93969993928b99U, 0x95938b8d8e908f90U, 0x938f96909892988eU,
  0x9b969193989c9191U, 0x988f90929c998d92U, 0x9997969a92949391U, 0x8d8c8b8e8896938dU,
  0x9293978d8e939a95U, 0x99948c9a9696928eU, 0x939b959399959099U, 0x948f96988b91978fU,
  0x8d92928e979b8b8cU, 0x8b959a97938b9590U, 0x8f909392978f8b95U, 0x89919a8b95929495U,
  0x998b8f93948f9095U, 0x8b979799978f8f95U, 0x948c938b8b929991U, 0x9a9a8f9696969891U,
  0x8e8e998f8d8f9093U, 0x9193989592909890U, 0x9b918e93948f909aU, 0x948c90958f94928fU,
  0x929695928f938d8fU, 0x9998979691938d8bU, 0x92938f8d8a949590U, 0x8f96919297979399U,
  0x94939b94948f8c97U, 0x9e958f8d9492969aU, 0xa08e96958e8b9492U, 0x959590918f8c9492U,
  0x968f968f91939a90U, 0x968e919597948f9cU, 0x8b9599909a999797U, 0x98968f9995989991U,
  0x8f8e8e8f9a8c8a8bU, 0x949991949b978d8eU, 0x968f999b90949a91U, 0x8e958f968b9a9698U,
  0x9c98998e99938f8aU, 0x959a908e99969698U, 0x9697968c9a8f9b9aU, 0x8f9e9b938d98908eU,
  0x938e988ea0908d9aU, 0x9b8c97989993928fU, 0x9e9f8e9293969095U, 0x948d908d97948c9aU,
  0x968f9b919a9d8e8fU, 0x93958e908f8f9d90U, 0x9c8d8f939e988d8fU, 0x94919a9b96928e8fU,
  0x9a97919296949b97U, 0x9b929b97978e9698U, 0x9a94998f95949197U, 0x8d9793969d94908bU,
  0x97959387908c8f96U, 0x9593919a90968e89U, 0x918f949599948e8dU, 0x8e8c91929a8b9497U,
  0x8e96958f9a8e928fU, 0x8c99958e88929689U, 0x868f8c919290988dU, 0x968c938f8f918e90U,
  0x998e938a8b979692U, 0x898b948b8c968390U, 0x9b96938c97959a91U, 0x94909a938b9a9989U,
  0x9b93909295899893U, 0x8e909a9593908f98U, 0x938e968b8b97988dU, 0x9791968d8e8c968fU,
  0x9495949690899c98U, 0x968e928f8d8a9595U, 0x8d8e99988b8e9295U, 0x968e8c9998919492U,
  0x95969289888b9695U, 0x8d8f9497898f968eU, 0x908d908b9096969aU, 0x929195918d899795U,
  0x958c878a90908c8eU, 0x91938f9996948d93U, 0x8d938e9689968b92U, 0x9493978b889c9497U,
  0x8b8c8e8d8e889192U, 0x988e979590908c8cU, 0x928a918e9488968eU, 0x94948990938f8b91U,
  0x9493959094909d92U, 0x938f8d8e96919994U, 0x958d929195959b91U, 0x9492988b93949096U,
  0x8c9297978e91968eU, 0x918c979397968d8bU, 0x9e928f9390938f93U, 0x8b8b958d9a8b9391U,
  0x8b899493918d8d8cU, 0x899894968f949a98U, 0x8f90939388918b98U, 0x939a8d9b958b9197U,
  0x9890939592918a92U, 0x908a909b8d95929aU, 0x8c919b96958d9695U, 0x8f8c8f918d8e9498U,
  0x9499968e93939091U, 0x9590949699908d96U, 0x968b9095948e928dU, 0x8a94938c9589928eU,
  0x969b96909b8d8f9aU, 0x8e979a8d948d9095U, 0x96959795979b9596U, 0x958c8b8d8b979a8aU,
  0x928f939396908b98U, 0x8b8c8b9892948899U, 0x97909b9499959a8cU, 0x939697908d919295U,
  0x9c8e958e94908e94U, 0x8f97988f9a928e90U, 0x8d989a9794988d94U, 0x9794959899949a95U,
  0x8e8e8b95979c8d88U, 0x9a948e999496918bU, 0x969a948c8d939c8eU, 0x98979e8d979a8d98U,
  0x978d9b9a96938994U, 0x8c9292979a958b98U, 0x8f9c8e9a9695989aU, 0x909598908b8c9a93U,
  0x9094888c8c8d938fU, 0x8d91989091959496U, 0x949691878a929c8fU, 0x98919394998d908dU,
  0x8c95968b8c898e97U, 0x918e8d8b929b9190U, 0x9a939c948b92928dU, 0x8e9593948f8c9090U,
  0x8b978f8b958e948bU, 0x93948d9899909292U, 0x959094918f978e98U, 0x918b928b9498978eU,
  0x8d8b8b8f949b9396U, 0x8e918b9795969192U, 0x8d90908d928c8f8bU, 0x8b9093928a908d90U,
  0x90908b9992919894U, 0x9388949492939091U, 0x908e8c8b8a928e99U, 0x8d949896968d9994U,
  0x8792978e9a908b8fU, 0x9694968e8d989691U, 0x978f86958e968e96U, 0x8e979a9590958c99U,
  0x9497969690968e87U, 0x929a949b958e9992U, 0x928d9996959a9a92U, 0x8d8b8d9592919a8dU,
  0x93989a9a92948c97U, 0x8c92938b8d978b8bU, 0x888a8d9195949896U, 0x9291978f8c949298U,
  0x988f8797988c8a91U, 0x979991939490958eU, 0x8a96988e8b948c95U, 0x8c8d958e95999792U,
  0x91938e928e979595U, 0x93908d8d98958b95U, 0x8c94929a988e8f96U, 0x9993918d8b989499U,
  0x939a8c968f8d8e8eU, 0x8d8e9a96958b988fU, 0x9e91988c94989196U, 0x989b958d91938d8fU,
  0x949891919a949898U, 0x9a8d958b9596968dU, 0x8f95999b958e9094U, 0x9e97949b89918c90U,
  0x9a948b988d94948cU, 0x8d8e938c92979a91U, 0x928d8d8e928b9994U, 0x96938b9c8f9b918eU,
  0x93998f958d9b9598U, 0x98948e9b8f8f8e95U, 0x8c948c8c9a929598U, 0x8d8e968e8b8e8d8eU,
  0x989294908e9b968bU, 0x8f979b8b92959396U, 0x95938f8e9a8c9c97U, 0x919c9a9090918e8dU,
  0x948e9b9694999394U, 0x8d8a8f9a97929093U, 0x98928d8f939c9596U, 0x9b8b999299969394U,
  0x948d939298989096U, 0x8f918b9496989d96U, 0x8f8d90968f94938dU, 0x958d948e8d8e9a8fU,
  0x95968e9198958b9aU, 0x8e948d949a9a9b94U, 0x959c98989291968eU, 0x90998e96958f8f8dU,
  0x96979a8d9096949aU, 0x8c8a969191909094U, 0x909c96909692978eU, 0x96988c8f998d928bU,
  0x8e8b989699938b97U, 0x8b90938e95939094U, 0x8f938f938f988e8fU, 0x9a91978d8e948c92U,
  0x9399959397919498U, 0x96969190928f8d8fU, 0x888f8c9096919a94U, 0x91978b8f94989097U,
  0x9d938c999993968dU, 0x8c99939593988d91U, 0x8e97919b8c94958eU, 0x8e9a969492988f91U,
  0x8e939a9397908f97U, 0x938c909794939494U, 0x97928e949a8c9993U, 0x96919594978e938fU,
  0x959896908f8b999aU, 0x9c988d8b88909a91U, 0x918e8f9e9897968eU, 0x8c8f8b9896909999U,
  0x979187978e939694U, 0x938e9196928e938fU, 0x939794929b8e988cU, 0x8c8c8d94928e978dU,
  0x9598919a8e928c96U, 0x929191948e90918bU, 0x898c919a99918e91U, 0x998e948e8992938dU,
  0x8f9497949694918dU, 0x8f8c978c8b928d8bU, 0x8d8a92948c9a9091U, 0x9c929a8f8f8b8e98U,
  0x8f8d8c9098978e8eU, 0x8e8c979098879193U, 0x8e8c9a8d969a8d92U, 0x918d89908e89948dU,
  0x92948c898c908e96U, 0x8c9793938a908f8fU, 0x99969493908f8b95U, 0x948b908c99989793U,
  0x9595989090988b91U, 0x8f9195968e918e99U, 0x978f898b988e9893U, 0x909989978c8f9490U,
  0x958a9591998b9c8fU, 0x9b92969593949297U, 0x8e94988d92969290U, 0x8b8f95939a929595U,
  0x909691958e8c908dU, 0x94998c8e97958e85U, 0x91928f938b968d91U, 0x8d8c8d8c8f8f919aU,
  0x948d8e93989a8a90U, 0x988d939990939f91U, 0x9299918f8b908c8fU, 0x9a8d928f8c8d938fU,
  0x98978d8c91928f9dU, 0x9890919a8e998d8fU, 0x9298928a9592998eU, 0x9398989188959592U,
  0x86979a8e8b9a9789U, 0x918c8d8c938f8b9aU, 0x988a998e91919894U, 0x988794909990918dU,
  0x99959792918f9396U, 0x918d8e8e958b9490U, 0x8f8d989197998d8fU, 0x9b90928d988d928cU,
  0x8c928b9591978a8eU, 0x8f8b899393888b94U, 0x93968d91968f929bU, 0x93949692928f948bU,
  0x9a9592998e9a8e97U, 0x989196928a8f8f96U, 0x8b91938f9a92909aU, 0x94908c9899949691U,
  0x8e8e8f8d96939890U, 0x92938e8e93928f91U, 0x8e8e919398979093U, 0x978e9a99988e9391U,
  0x958e8d8f97958892U, 0x938f919195909291U, 0x948b9a8a9990999aU, 0x908e9c949893988eU,
  0x9595919997978b92U, 0x929794998f969e8eU, 0x90968c968c91939cU, 0x8d999a9596918c8aU,
  0x8b9695909194939cU, 0x929291919a998f99U, 0x9b9d8c8f91949497U, 0x98999a9493969899U,
  0x928d949b98909588U, 0x8c908d93998c8d90U, 0x9899959998949796U, 0x95908e8c8d9c908fU,
  0x9695939a958d8d97U, 0x908f8d94988c9990U, 0x91919699978e938dU, 0x90999493928a9692U,
  0x91939092988e9491U, 0x8d978b9396959094U, 0x8a8d938f9696998dU, 0x99949b938c8c9188U,
  0x8d988e98998b9699U, 0x8a8b9897958f8b92U, 0x9291959a9091908fU, 0x978c98988e8f918cU,
  0x9896959197909193U, 0x998f968c8f978c94U, 0x928b92948f8c8c98U, 0x8e8f94988f8c8e95U,
  0x8b99978c9597918cU, 0x97908e8f94999298U, 0x9293999295909092U, 0x94999a9798988c8dU,
  0x908b928d98968f8cU, 0x8f97909396949090U, 0x948f93988c959990U, 0x95948f8f93939592U,
  0x9a8b8e8e8b969197U, 0x8b978b9595979891U, 0x958f9b8b96909a94U, 0x938c8e8f8c969591U,
  0x97938f8d99949393U, 0x978d8d9692958c99U, 0x989296978d998b96U, 0x8b9a94968d929590U,
  0x97938e96988e9899U, 0x989a8c9993959092U, 0x909590968e8b918eU, 0x928f9093909a9093U,
  0x94909891908f9992U, 0x9190918f93929a90U, 0x918f928e9996998bU, 0x998f8c9596969094U,
  0x9594918d9a8f8c8eU, 0x998f8d9796919299U, 0x92958c8f9596928eU, 0x918d91989a969997U,
  0x968f988c8d988c92U, 0x908e969697928f8eU, 0x908e8d8d8e93968fU, 0x8d8b9398918b8f93U,
  0x959397908d90998bU, 0x998b8f90958e8c8dU, 0x938d8c9295919a90U, 0x979297918b918c8fU,
  0x90999a8f8e8e9590U, 0x9a908f95938e9090U, 0x8b91988b8f8c9393U, 0x94988c909291938fU,
  0x8f8f948d8d99968fU, 0x8e8f8d94938e8c8fU, 0x8b919a9792939698U, 0x90908c8f8c969990U,
  0x959293959a969992U, 0x948c8e909691998fU, 0x8d92929790999798U, 0x998e8d9293958d93U,
  0x9893908b928d9497U, 0x8b9297918c959996U, 0x8b8f968c9791949aU, 0x968d8b909a98978eU,
  0x949898998e949599U, 0x8d8d938f9194978bU, 0x8e928d8d9695978fU, 0x8f8e939396988b98U,
  0x9a8c958e8b8c8e8bU, 0x93938d9398908c8bU, 0x918f96998b949590U, 0x958e98998b949691U,
  0x9a8e958b8c98988cU, 0x8e999a9191959696U, 0x8b928f979193978cU, 0x928e9993968b998cU,
  0x968f93928c8e9990U, 0x9899908f8f97988fU, 0x8d9a978d8c94988cU, 0x919a929698959192U,
  0x9098978f91929890U, 0x8b8b9096988d8c95U, 0x97938e929192938eU, 0x91948b8f8d999890U,
  0x96959996988f8e90U, 0x988b908b958d9794U, 0x8d9593968e999a90U, 0x8b918e8d99919390U,
  0x8b8d9791908f9194U, 0x908e99989a93968fU, 0x8f91909492918e97U, 0x998f99989390968eU,
  0x978f8f958c948d92U, 0x8f8f93908d8e8d97U, 0x969a979a988d9192U, 0x928f9794928b8b8bU,
  0x8e8c99988d958d96U, 0x8c988e8e94909292U, 0x8b949292928d9a8dU, 0x94928d94918b958fU,
  0x8e908f8d96948c98U, 0x9598908b8f949395U, 0x97998b9893929293U, 0x9a968c9996969099U,
  0x8b8c95958e919794U, 0x99918c9a998b8c98U, 0x958d92909890918fU, 0x97979290938b9793U,
  0x8f8d938d92978b9aU, 0x8f97908d8f929a95U, 0x959194938d8c8e97U, 0x9a8f908d9692928dU,
  0x8f91909993939191U, 0x8f99958c9799988eU, 0x978c918c8f919694U, 0x8c919299928b9696U,
  0x939299998f918c98U, 0x9191959496909791U, 0x958c93908f958d94U, 0x969093998f8e8f95U,
  0x98909593978c9895U, 0x939699958b98978fU, 0x8e9697978e938f8eU, 0x8b9090928e918e91U,
  0x918f95919996928cU, 0x9990959392959191U, 0x8d8d9a8d8e8e948dU, 0x908f9998929a8b97U,
  0x8f97918e9791958cU, 0x99938e9a95959a93U, 0x8c918c949a939697U, 0x8b8f8c8f8b94908cU,
  0x978c90988c988b94U, 0x8d8f9a8b928e9894U, 0x958c999996968c8dU, 0x96928e94958d8d8cU,
  0x9897968c8d929194U, 0x948e91999990978dU, 0x91908f8c908e9990U, 0x989799918e969892U,
  0x9893988c93928d8fU, 0x9593938b8c998b95U, 0x94978f9290948b97U, 0x9898989a979a968fU,
  0x998e999693998d8eU, 0x9497968b978e9090U, 0x939499938c90918cU, 0x9091918f8f919095U,
  0x91958f8f90929594U, 0x9692968d9a8c988eU, 0x8e91908e94918d8bU, 0x8d96989597939195U,
  0x989295999598908fU, 0x9a8e9190968f8b8cU, 0x9993948c978d9594U, 0x8f90978e908d8e92U,
  0x95929190918f9893U, 0x97998b9296978c96U, 0x9990928b998e8d92U, 0x939a9a9598959191U,
  0x8d929b8e99989a94U, 0x8f8e9a9690928c8dU, 0x97938e8e8c959493U, 0x919a8f959799989aU,
  0x8b908f998c8b9294U, 0x968e948e8d8c928eU, 0x8e9990959a90928dU, 0x999095948b939996U,
  0x8d9491918c8c8f8fU, 0x8f939999978c908eU, 0x968b928b8d968e96U, 0x8e998d8b9699978eU,
  0x9492969790918f93U, 0x96918f9097939893U, 0x8e93989a928b9290U, 0x90969a9a97959991U,
  0x938c91948e919290U, 0x90938f93958d958eU, 0x8c8b999292908b99U, 0x969392948d909995U,
  0x8f928d969094908bU, 0x99958f9496989194U, 0x948b8c908e919897U, 0x99968b9897928f92U,
  0x949292999a8b908dU, 0x9995948f8f929598U, 0x908e8d948c90959aU, 0x8e92928d8c8e8d94U,
